<pad>	0
<unk>	0
<s>	0
</s>	0
<paraphrase>	0
▁t	-0
▁a	-1
in	-2
he	-3
re	-4
at	-5
▁the	-6
on	-7
er	-8
▁s	-9
▁W	-10
an	-11
es	-12
▁w	-13
is	-14
▁b	-15
▁Wh	-16
or	-17
▁c	-18
▁d	-19
ou	-20
▁I	-21
▁m	-22
▁f	-23
en	-24
▁in	-25
it	-26
▁o	-27
▁p	-28
▁What	-29
ow	-30
ar	-31
nd	-32
al	-33
▁H	-34
ed	-35
▁of	-36
ic	-37
▁is	-38
ing	-39
▁to	-40
om	-41
le	-42
▁How	-43
▁and	-44
as	-45
▁do	-46
▁,	-47
▁h	-48
ion	-49
▁.	-50
▁l	-51
est	-52
▁y	-53
et	-54
▁g	-55
il	-56
▁are	-57
▁e	-58
▁you	-59
ve	-60
st	-61
▁C	-62
ro	-63
▁n	-64
▁S	-65
ent	-66
▁for	-67
ac	-68
▁re	-69
id	-70
▁T	-71
am	-72
▁on	-73
▁th	-74
▁A	-75
ld	-76
▁can	-77
▁be	-78
if	-79
▁best	-80
ay	-81
▁M	-82
ot	-83
im	-84
▁st	-85
ol	-86
ver	-87
el	-88
ct	-89
ad	-90
ig	-91
ome	-92
ter	-93
us	-94
▁an	-95
▁1	-96
ir	-97
▁B	-98
ce	-99
ly	-100
oo	-101
▁D	-102
▁P	-103
ur	-104
ch	-105
op	-106
ation	-107
ith	-108
ould	-109
ill	-110
▁my	-111
▁it	-112
00	-113
ia	-114
ke	-115
▁mo	-116
▁with	-117
▁we	-118
▁wh	-119
▁Why	-120
out	-121
▁was	-122
ich	-123
▁R	-124
▁G	-125
ag	-126
▁some	-127
▁ha	-128
os	-129
un	-130
▁r	-131
um	-132
ist	-133
▁2	-134
ut	-135
pp	-136
one	-137
▁pro	-138
▁fr	-139
ul	-140
▁The	-141
▁de	-142
th	-143
▁sh	-144
▁as	-145
her	-146
▁N	-147
▁com	-148
ers	-149
▁E	-150
ren	-151
▁ex	-152
ri	-153
▁J	-154
ate	-155
fe	-156
ra	-157
qu	-158
▁or	-159
▁get	-160
▁Ind	-161
res	-162
ine	-163
▁your	-164
▁by	-165
▁that	-166
▁con	-167
▁le	-168
▁F	-169
▁se	-170
▁L	-171
and	-172
▁from	-173
▁v	-174
art	-175
ie	-176
▁Is	-177
▁al	-178
igh	-179
▁Which	-180
ant	-181
▁'	-182
ess	-183
ies	-184
em	-185
▁at	-186
pe	-187
oc	-188
▁have	-189
▁he	-190
ive	-191
ang	-192
ain	-193
▁wor	-194
▁ne	-195
ity	-196
ian	-197
▁U	-198
▁bet	-199
ort	-200
▁not	-201
▁ab	-202
▁ch	-203
ood	-204
arn	-205
ake	-206
▁k	-207
ack	-208
ud	-209
▁(	-210
▁does	-211
are	-212
ab	-213
oun	-214
ight	-215
▁K	-216
end	-217
ak	-218
ook	-219
▁India	-220
▁way	-221
▁pl	-222
we	-223
▁should	-224
ite	-225
▁comp	-226
all	-227
se	-228
ast	-229
od	-230
ment	-231
▁su	-232
▁"	-233
▁pe	-234
ap	-235
▁Q	-236
our	-237
iv	-238
ind	-239
▁im	-240
hen	-241
▁me	-242
▁O	-243
ong	-244
ary	-245
ical	-246
▁19	-247
▁Qu	-248
▁In	-249
▁dif	-250
ip	-251
ople	-252
ions	-253
ore	-254
▁qu	-255
▁most	-256
▁20	-257
▁if	-258
ount	-259
ween	-260
▁people	-261
ard	-262
feren	-263
ish	-264
▁between	-265
▁us	-266
▁about	-267
ber	-268
ated	-269
ife	-270
ide	-271
ora	-272
up	-273
▁learn	-274
here	-275
ial	-276
▁differen	-277
▁li	-278
av	-279
ell	-280
og	-281
▁j	-282
▁Quora	-283
act	-284
age	-285
▁imp	-286
▁would	-287
▁201	-288
ime	-289
▁will	-290
ge	-291
ure	-292
▁ever	-293
▁Ch	-294
ry	-295
▁life	-296
ust	-297
now	-298
▁Can	-299
any	-300
▁af	-301
▁one	-302
▁so	-303
te	-304
cc	-305
▁good	-306
▁bec	-307
▁tr	-308
ass	-309
▁5	-310
pl	-311
ear	-312
▁)	-313
vel	-314
per	-315
ace	-316
ice	-317
▁pre	-318
▁sc	-319
ink	-320
▁en	-321
▁know	-322
mer	-323
▁un	-324
ark	-325
``	-326
▁``	-327
ord	-328
▁like	-329
ub	-330
▁Who	-331
pt	-332
▁make	-333
ne	-334
▁there	-335
▁''	-336
ail	-337
ire	-338
ram	-339
ound	-340
ble	-341
000	-342
▁start	-343
▁ad	-344
oney	-345
ose	-346
▁V	-347
▁Where	-348
▁has	-349
▁time	-350
ame	-351
ans	-352
▁app	-353
ally	-354
▁St	-355
▁any	-356
▁money	-357
▁book	-358
▁Do	-359
und	-360
ng	-361
▁go	-362
ence	-363
▁te	-364
rit	-365
du	-366
gh	-367
▁when	-368
ob	-369
▁ph	-370
▁were	-371
▁-	-372
lect	-373
▁his	-374
▁bl	-375
▁fir	-376
▁think	-377
▁after	-378
iz	-379
ile	-380
▁what	-381
▁difference	-382
ther	-383
ree	-384
ous	-385
▁ser	-386
ric	-387
▁sa	-388
▁all	-389
iver	-390
▁first	-391
▁3	-392
ump	-393
ue	-394
▁ar	-395
▁thing	-396
ove	-397
▁Tr	-398
▁stud	-399
int	-400
▁inc	-401
▁did	-402
ign	-403
ep	-404
own	-405
▁mov	-406
▁bu	-407
▁quest	-408
ident	-409
orn	-410
ost	-411
ations	-412
▁Y	-413
ew	-414
▁happ	-415
▁become	-416
red	-417
line	-418
▁sp	-419
▁cl	-420
▁int	-421
ach	-422
ress	-423
erm	-424
▁work	-425
▁exam	-426
con	-427
▁spe	-428
▁year	-429
▁acc	-430
▁who	-431
▁why	-432
ics	-433
fect	-434
▁out	-435
▁Trump	-436
▁If	-437
ance	-438
ase	-439
▁res	-440
▁up	-441
▁dis	-442
▁Indian	-443
▁Eng	-444
▁cont	-445
▁inter	-446
▁new	-447
ory	-448
▁fe	-449
▁pr	-450
▁tra	-451
▁world	-452
bs	-453
ool	-454
oss	-455
reat	-456
▁rec	-457
so	-458
▁happen	-459
▁Sh	-460
onal	-461
ph	-462
irl	-463
▁gr	-464
▁they	-465
able	-466
ild	-467
▁He	-468
▁per	-469
▁500	-470
▁more	-471
ough	-472
lish	-473
▁impro	-474
gram	-475
ible	-476
▁online	-477
ath	-478
▁over	-479
▁had	-480
▁many	-481
▁how	-482
▁It	-483
▁find	-484
▁which	-485
oll	-486
ult	-487
ff	-488
▁pres	-489
ft	-490
▁und	-491
▁eng	-492
▁their	-493
▁elect	-494
hip	-495
orm	-496
▁off	-497
land	-498
▁other	-499
▁ag	-500
▁am	-501
▁improve	-502
▁program	-503
angu	-504
ick	-505
▁said	-506
▁notes	-507
▁act	-508
▁1000	-509
iew	-510
▁someone	-511
▁cons	-512
▁under	-513
ors	-514
lic	-515
▁but	-516
▁comm	-517
▁girl	-518
▁fl	-519
▁inv	-520
elf	-521
▁langu	-522
uc	-523
ock	-524
ater	-525
▁prep	-526
ces	-527
▁part	-528
▁rel	-529
meric	-530
▁Th	-531
▁than	-532
▁pers	-533
▁18	-534
oy	-535
uch	-536
▁Cl	-537
▁English	-538
▁Un	-539
ational	-540
▁ban	-541
▁this	-542
▁Americ	-543
▁mark	-544
▁6	-545
▁count	-546
aw	-547
▁engine	-548
▁day	-549
▁US	-550
▁des	-551
ts	-552
▁sy	-553
▁tw	-554
ens	-555
ced	-556
▁also	-557
ru	-558
chool	-559
▁New	-560
▁ro	-561
▁play	-562
▁2016	-563
▁use	-564
▁stop	-565
▁col	-566
eth	-567
▁much	-568
ents	-569
ov	-570
ited	-571
▁without	-572
ok	-573
ied	-574
day	-575
ict	-576
velop	-577
ates	-578
▁200	-579
▁long	-580
▁man	-581
▁Will	-582
ming	-583
▁weight	-584
iness	-585
onald	-586
▁co	-587
▁cur	-588
▁Al	-589
▁poss	-590
ason	-591
▁4	-592
▁want	-593
▁sm	-594
▁em	-595
▁mar	-596
ples	-597
""	-598
ade	-599
▁ask	-600
ering	-601
▁books	-602
▁i	-603
ork	-604
▁ru	-605
ction	-606
▁Donald	-607
▁questions	-608
▁win	-609
ange	-610
▁been	-611
▁develop	-612
▁language	-613
▁lose	-614
olog	-615
▁serv	-616
▁che	-617
hed	-618
ating	-619
▁bus	-620
▁att	-621
▁fav	-622
▁ways	-623
▁dec	-624
ition	-625
▁love	-626
▁writ	-627
▁""	-628
▁feel	-629
▁two	-630
sw	-631
cy	-632
▁its	-633
▁sex	-634
▁produ	-635
▁job	-636
yd	-637
▁buy	-638
▁webs	-639
ning	-640
les	-641
rib	-642
over	-643
▁loc	-644
▁ind	-645
ffect	-646
ah	-647
▁possible	-648
▁ev	-649
way	-650
▁could	-651
ages	-652
ily	-653
▁better	-654
▁vis	-655
ual	-656
▁ver	-657
iss	-658
ting	-659
▁into	-660
▁business	-661
▁rupe	-662
ys	-663
ities	-664
▁num	-665
▁effect	-666
▁ear	-667
▁rem	-668
▁bel	-669
?"	-670
▁eas	-671
ect	-672
rest	-673
▁examples	-674
▁her	-675
▁old	-676
ful	-677
mon	-678
aus	-679
▁used	-680
▁mon	-681
▁Se	-682
▁programming	-683
ines	-684
orth	-685
▁--	-686
▁take	-687
▁ac	-688
ient	-689
▁being	-690
ix	-691
▁An	-692
▁person	-693
▁need	-694
▁pass	-695
▁rid	-696
ral	-697
stem	-698
ience	-699
▁school	-700
▁no	-701
▁form	-702
apt	-703
▁import	-704
io	-705
outh	-706
▁pol	-707
▁answ	-708
ina	-709
▁Le	-710
iend	-711
▁Mar	-712
oh	-713
atch	-714
ney	-715
▁cre	-716
ative	-717
▁mean	-718
▁friend	-719
self	-720
▁reg	-721
▁top	-722
uring	-723
▁Are	-724
inton	-725
▁black	-726
▁account	-727
▁inst	-728
ely	-729
▁med	-730
▁Hill	-731
ular	-732
▁When	-733
▁Ar	-734
▁And	-735
ern	-736
▁:	-737
▁study	-738
▁prepare	-739
ten	-740
eral	-741
form	-742
▁Clinton	-743
urn	-744
ton	-745
▁market	-746
▁mus	-747
▁curren	-748
▁dist	-749
▁fact	-750
▁wom	-751
fore	-752
▁read	-753
▁found	-754
ash	-755
▁Does	-756
man	-757
ise	-758
ism	-759
▁again	-760
▁system	-761
ave	-762
ject	-763
its	-764
ai	-765
▁trans	-766
ific	-767
ased	-768
ollow	-769
▁gen	-770
▁free	-771
▁president	-772
▁De	-773
▁war	-774
▁As	-775
ivers	-776
▁real	-777
▁Fr	-778
port	-779
uter	-780
▁fam	-781
▁invest	-782
▁fun	-783
▁pub	-784
▁sk	-785
nment	-786
old	-787
▁supp	-788
▁hel	-789
▁now	-790
als	-791
▁movie	-792
iest	-793
ron	-794
ious	-795
▁don	-796
▁10	-797
ower	-798
amp	-799
▁engineering	-800
▁back	-801
▁every	-802
▁soc	-803
▁before	-804
▁question	-805
au	-806
▁favor	-807
view	-808
oot	-809
▁po	-810
gin	-811
▁gu	-812
cond	-813
▁br	-814
▁incre	-815
gy	-816
▁Should	-817
▁7	-818
▁fil	-819
▁inte	-820
▁adv	-821
iet	-822
ib	-823
▁car	-824
▁things	-825
▁favorite	-826
▁exper	-827
aj	-828
az	-829
lud	-830
ision	-831
▁down	-832
▁Hillary	-833
▁different	-834
oog	-835
▁really	-836
▁number	-837
ll	-838
▁phone	-839
▁mot	-840
▁only	-841
▁thr	-842
▁song	-843
▁follow	-844
▁company	-845
▁born	-846
▁rupee	-847
▁char	-848
▁made	-849
▁ed	-850
▁op	-851
▁add	-852
▁movies	-853
wn	-854
▁fat	-855
xt	-856
▁help	-857
▁while	-858
▁sim	-859
tern	-860
▁care	-861
ings	-862
▁Re	-863
att	-864
▁prof	-865
ale	-866
▁Sp	-867
ons	-868
▁country	-869
ug	-870
▁them	-871
ames	-872
▁great	-873
ond	-874
▁fin	-875
ution	-876
▁website	-877
aking	-878
▁high	-879
ax	-880
lo	-881
▁hack	-882
son	-883
ried	-884
▁earn	-885
▁plac	-886
▁where	-887
ince	-888
▁iP	-889
▁cent	-890
▁intern	-891
▁travel	-892
▁second	-893
ank	-894
anc	-895
▁hum	-896
▁month	-897
▁mem	-898
akes	-899
Wh	-900
▁includ	-901
▁own	-902
▁computer	-903
▁plan	-904
gan	-905
pect	-906
▁Count	-907
▁gover	-908
▁during	-909
lege	-910
▁Joh	-911
▁Goog	-912
▁Syd	-913
istan	-914
▁Sydney	-915
▁important	-916
▁learning	-917
▁she	-918
get	-919
▁pur	-920
▁years	-921
book	-922
▁increase	-923
▁live	-924
▁change	-925
▁cr	-926
ology	-927
)?	-928
▁ide	-929
ek	-930
ata	-931
ote	-932
▁won	-933
hone	-934
▁United	-935
ier	-936
ital	-937
▁str	-938
fer	-939
▁prov	-940
uss	-941
illion	-942
▁spec	-943
▁interest	-944
cent	-945
ites	-946
ene	-947
gest	-948
ted	-949
▁ty	-950
▁wr	-951
ows	-952
ty	-953
ody	-954
ures	-955
ex	-956
▁Com	-957
▁right	-958
▁then	-959
hes	-960
aptop	-961
▁child	-962
ices	-963
alth	-964
▁visit	-965
▁Google	-966
▁call	-967
▁laptop	-968
▁American	-969
ters	-970
ield	-971
▁design	-972
cess	-973
▁sur	-974
oup	-975
▁Pro	-976
▁John	-977
▁test	-978
▁place	-979
▁Z	-980
▁County	-981
chn	-982
ner	-983
▁pa	-984
▁state	-985
▁sub	-986
ert	-987
ird	-988
▁2016?	-989
▁law	-990
ically	-991
▁mod	-992
riend	-993
▁$	-994
rol	-995
▁Aust	-996
ship	-997
▁ret	-998
ware	-999
▁music	-1000
▁through	-1001
▁iPhone	-1002
cept	-1003
ctor	-1004
akistan	-1005
ins	-1006
ont	-1007
ball	-1008
ills	-1009
conom	-1010
▁dire	-1011
▁Ph	-1012
riv	-1013
▁caus	-1014
▁view	-1015
ams	-1016
ists	-1017
▁located	-1018
ck	-1019
▁199	-1020
▁places	-1021
▁mind	-1022
▁Sc	-1023
▁cour	-1024
▁against	-1025
▁dep	-1026
▁Pakistan	-1027
ros	-1028
ional	-1029
▁series	-1030
▁exp	-1031
ually	-1032
▁main	-1033
ik	-1034
ute	-1035
▁Pres	-1036
▁On	-1037
▁film	-1038
▁government	-1039
▁ent	-1040
▁mat	-1041
▁Germ	-1042
▁ke	-1043
rict	-1044
▁vide	-1045
▁Af	-1046
ouse	-1047
▁2017	-1048
▁relations	-1049
▁build	-1050
▁end	-1051
▁jo	-1052
▁ass	-1053
▁our	-1054
▁big	-1055
ished	-1056
▁watch	-1057
AT	-1058
▁rep	-1059
▁current	-1060
oth	-1061
ract	-1062
ieve	-1063
raph	-1064
▁sol	-1065
▁sign	-1066
ars	-1067
▁econom	-1068
ural	-1069
▁home	-1070
▁soft	-1071
chan	-1072
▁min	-1073
▁just	-1074
▁season	-1075
▁Br	-1076
wood	-1077
▁pop	-1078
aster	-1079
erv	-1080
led	-1081
friend	-1082
▁last	-1083
▁comple	-1084
ality	-1085
▁York	-1086
▁offic	-1087
▁women	-1088
ffic	-1089
▁det	-1090
▁name	-1091
arch	-1092
iversity	-1093
▁9	-1094
ined	-1095
▁see	-1096
▁sing	-1097
▁bro	-1098
▁II	-1099
ones	-1100
ister	-1101
ple	-1102
▁Rs	-1103
▁him	-1104
▁look	-1105
▁still	-1106
▁support	-1107
▁Mod	-1108
ccess	-1109
▁same	-1110
▁say	-1111
▁sec	-1112
▁Face	-1113
word	-1114
▁tell	-1115
▁Ad	-1116
▁av	-1117
▁bad	-1118
▁pain	-1119
▁hist	-1120
▁cor	-1121
▁married	-1122
hi	-1123
load	-1124
▁President	-1125
What	-1126
▁air	-1127
▁Chr	-1128
▁rele	-1129
▁Inst	-1130
▁exist	-1131
▁South	-1132
▁known	-1133
▁answer	-1134
▁8	-1135
ull	-1136
▁art	-1137
▁very	-1138
▁career	-1139
▁Facebook	-1140
air	-1141
▁River	-1142
ger	-1143
▁phot	-1144
▁three	-1145
▁mechan	-1146
enn	-1147
▁myself	-1148
▁15	-1149
mber	-1150
▁inf	-1151
▁family	-1152
▁reason	-1153
br	-1154
▁class	-1155
alk	-1156
▁leg	-1157
▁week	-1158
▁States	-1159
▁election	-1160
▁relationship	-1161
ret	-1162
ley	-1163
▁ins	-1164
ement	-1165
▁China	-1166
▁social	-1167
▁Brit	-1168
ments	-1169
▁commun	-1170
▁open	-1171
▁success	-1172
ann	-1173
other	-1174
▁Austral	-1175
ards	-1176
olly	-1177
▁Har	-1178
rop	-1179
▁bre	-1180
agram	-1181
▁conf	-1182
▁college	-1183
ency	-1184
ats	-1185
ries	-1186
▁Col	-1187
ush	-1188
▁North	-1189
▁198	-1190
▁meth	-1191
▁Co	-1192
▁software	-1193
ode	-1194
▁set	-1195
▁Canad	-1196
▁Pr	-1197
▁product	-1198
aut	-1199
▁begin	-1200
ving	-1201
▁skills	-1202
ergy	-1203
▁aut	-1204
▁Modi	-1205
▁near	-1206
umb	-1207
▁sl	-1208
""?"	-1209
▁next	-1210
▁ext	-1211
▁America	-1212
apan	-1213
▁using	-1214
sy	-1215
▁def	-1216
▁interview	-1217
▁going	-1218
ared	-1219
igin	-1220
roid	-1221
▁health	-1222
▁password	-1223
uro	-1224
▁Russ	-1225
ula	-1226
augh	-1227
ane	-1228
hern	-1229
▁lead	-1230
ize	-1231
urb	-1232
▁sal	-1233
▁&	-1234
▁Am	-1235
▁web	-1236
▁facts	-1237
▁energy	-1238
▁service	-1239
aly	-1240
▁liv	-1241
▁17	-1242
▁Japan	-1243
une	-1244
ille	-1245
▁list	-1246
els	-1247
▁earth	-1248
der	-1249
ese	-1250
imes	-1251
▁opt	-1252
▁deal	-1253
ature	-1254
▁recover	-1255
▁come	-1256
▁paren	-1257
ollywood	-1258
reen	-1259
▁son	-1260
ility	-1261
▁less	-1262
▁techn	-1263
▁done	-1264
▁food	-1265
▁fast	-1266
ober	-1267
▁data	-1268
▁men	-1269
▁beh	-1270
▁team	-1271
▁som	-1272
ube	-1273
▁196	-1274
▁true	-1275
▁Bang	-1276
▁charac	-1277
▁city	-1278
▁hard	-1279
▁oper	-1280
▁light	-1281
com	-1282
▁boy	-1283
ajor	-1284
▁Mus	-1285
▁written	-1286
▁Bl	-1287
▁197	-1288
▁later	-1289
▁prepar	-1290
▁run	-1291
▁decision	-1292
▁water	-1293
ven	-1294
ired	-1295
▁origin	-1296
▁dr	-1297
ator	-1298
▁She	-1299
▁small	-1300
▁public	-1301
osed	-1302
▁percent	-1303
ms	-1304
▁lar	-1305
▁non	-1306
▁power	-1307
ets	-1308
▁bank	-1309
▁seen	-1310
▁human	-1311
mail	-1312
▁redu	-1313
▁War	-1314
uture	-1315
▁write	-1316
work	-1317
▁rest	-1318
▁effects	-1319
lim	-1320
inese	-1321
▁doing	-1322
▁believe	-1323
▁Be	-1324
▁educ	-1325
ror	-1326
ember	-1327
▁well	-1328
▁writing	-1329
my	-1330
▁Car	-1331
▁You	-1332
▁hand	-1333
▁worst	-1334
▁At	-1335
▁City	-1336
▁days	-1337
▁polit	-1338
iam	-1339
ope	-1340
▁create	-1341
ox	-1342
▁fall	-1343
ootball	-1344
gr	-1345
pose	-1346
▁Euro	-1347
ava	-1348
▁This	-1349
▁future	-1350
mp	-1351
orld	-1352
▁died	-1353
ization	-1354
▁For	-1355
▁disc	-1356
▁mechanical	-1357
ved	-1358
▁age	-1359
▁give	-1360
▁affect	-1361
▁download	-1362
▁Instagram	-1363
▁bas	-1364
▁kill	-1365
▁such	-1366
▁group	-1367
ges	-1368
ants	-1369
▁We	-1370
pr	-1371
lished	-1372
▁TV	-1373
▁USA	-1374
▁demon	-1375
▁Chinese	-1376
ria	-1377
▁phys	-1378
▁proper	-1379
▁16	-1380
▁West	-1381
▁dele	-1382
▁today	-1383
antages	-1384
▁anyone	-1385
▁Ed	-1386
ague	-1387
▁played	-1388
▁bi	-1389
▁dog	-1390
▁World	-1391
▁Christ	-1392
▁?	-1393
▁Del	-1394
▁Android	-1395
▁interesting	-1396
ipp	-1397
▁30	-1398
▁mil	-1399
▁met	-1400
▁short	-1401
enef	-1402
ness	-1403
oman	-1404
▁game	-1405
▁grow	-1406
▁major	-1407
▁Europe	-1408
20	-1409
ips	-1410
▁Ge	-1411
▁Air	-1412
▁student	-1413
ury	-1414
ream	-1415
▁Con	-1416
▁mob	-1417
▁control	-1418
▁cell	-1419
▁common	-1420
▁proble	-1421
▁banning	-1422
▁repl	-1423
▁stock	-1424
▁lik	-1425
▁typ	-1426
▁science	-1427
ered	-1428
ivil	-1429
▁est	-1430
▁benef	-1431
▁compan	-1432
▁trad	-1433
▁death	-1434
iety	-1435
ribut	-1436
ograph	-1437
▁organ	-1438
▁students	-1439
ues	-1440
bers	-1441
ross	-1442
▁requ	-1443
▁word	-1444
▁experience	-1445
lear	-1446
▁cost	-1447
▁gain	-1448
iverse	-1449
▁manag	-1450
▁quick	-1451
crib	-1452
vers	-1453
▁mom	-1454
▁hair	-1455
▁around	-1456
▁answers	-1457
oose	-1458
▁fore	-1459
▁pay	-1460
▁speak	-1461
▁white	-1462
▁countries	-1463
▁Te	-1464
▁sle	-1465
▁video	-1466
ruct	-1467
▁eat	-1468
▁marketing	-1469
▁May	-1470
▁train	-1471
▁purpose	-1472
▁scient	-1473
▁development	-1474
uck	-1475
▁Mac	-1476
ently	-1477
▁chang	-1478
▁Man	-1479
▁val	-1480
▁companies	-1481
ym	-1482
▁12	-1483
▁post	-1484
▁term	-1485
▁meaning	-1486
ford	-1487
▁head	-1488
▁record	-1489
adu	-1490
▁mobile	-1491
▁dig	-1492
▁friends	-1493
▁profess	-1494
▁cal	-1495
idence	-1496
▁project	-1497
co	-1498
ilar	-1499
ized	-1500
▁net	-1501
▁YouT	-1502
▁history	-1503
AS	-1504
▁stay	-1505
▁direct	-1506
▁British	-1507
▁million	-1508
app	-1509
cer	-1510
▁west	-1511
▁asked	-1512
▁reduce	-1513
▁too	-1514
ains	-1515
tle	-1516
▁ann	-1517
▁called	-1518
▁Australia	-1519
inu	-1520
ories	-1521
▁Have	-1522
▁self	-1523
▁intro	-1524
ma	-1525
ler	-1526
▁gl	-1527
ript	-1528
vent	-1529
vert	-1530
▁former	-1531
▁created	-1532
▁getting	-1533
ocr	-1534
hest	-1535
omin	-1536
▁keep	-1537
▁speed	-1538
alif	-1539
ward	-1540
ather	-1541
▁card	-1542
idered	-1543
inc	-1544
▁priv	-1545
▁behind	-1546
▁considered	-1547
thing	-1548
▁body	-1549
EE	-1550
arr	-1551
ived	-1552
▁dark	-1553
ission	-1554
▁north	-1555
▁popular	-1556
▁services	-1557
ways	-1558
▁par	-1559
itive	-1560
hem	-1561
eter	-1562
▁alb	-1563
▁equ	-1564
▁pos	-1565
verage	-1566
▁Canada	-1567
▁attack	-1568
▁differences	-1569
ling	-1570
▁Ste	-1571
▁ter	-1572
▁parents	-1573
▁Town	-1574
▁chem	-1575
▁sleep	-1576
▁successful	-1577
atic	-1578
▁hot	-1579
▁show	-1580
▁character	-1581
upp	-1582
▁Java	-1583
▁left	-1584
▁point	-1585
▁YouTube	-1586
▁demonet	-1587
▁Gr	-1588
▁blog	-1589
▁makes	-1590
▁easily	-1591
ians	-1592
▁Min	-1593
sych	-1594
▁process	-1595
▁suic	-1596
▁these	-1597
ham	-1598
▁site	-1599
▁became	-1600
▁biggest	-1601
▁startup	-1602
gn	-1603
▁adm	-1604
iction	-1605
▁My	-1606
▁rece	-1607
cul	-1608
oid	-1609
▁Sw	-1610
▁area	-1611
▁father	-1612
▁universe	-1613
pir	-1614
icip	-1615
▁smart	-1616
▁fund	-1617
▁move	-1618
▁another	-1619
▁effective	-1620
▁Jan	-1621
iation	-1622
▁album	-1623
▁email	-1624
▁Bar	-1625
▁four	-1626
▁songs	-1627
ior	-1628
▁Ear	-1629
▁coach	-1630
uly	-1631
ung	-1632
▁ob	-1633
ides	-1634
▁never	-1635
▁released	-1636
▁2000	-1637
▁2017?	-1638
▁Roman	-1639
▁expect	-1640
▁porn	-1641
que	-1642
▁Ex	-1643
▁var	-1644
▁both	-1645
▁line	-1646
▁vill	-1647
▁applic	-1648
▁football	-1649
▁personal	-1650
BA	-1651
▁giv	-1652
ublic	-1653
▁even	-1654
▁idea	-1655
▁education	-1656
▁El	-1657
ause	-1658
▁Mc	-1659
▁Rep	-1660
▁pros	-1661
▁space	-1662
▁economy	-1663
▁similar	-1664
▁anim	-1665
▁pict	-1666
▁children	-1667
▁University	-1668
▁Or	-1669
oard	-1670
▁App	-1671
▁woman	-1672
ift	-1673
amed	-1674
▁commit	-1675
ien	-1676
▁imm	-1677
▁expl	-1678
▁instit	-1679
▁happened	-1680
▁X	-1681
▁having	-1682
▁suicide	-1683
▁including	-1684
eb	-1685
▁civil	-1686
▁super	-1687
▁quality	-1688
▁district	-1689
▁field	-1690
▁south	-1691
ison	-1692
▁Intern	-1693
come	-1694
▁Delhi	-1695
▁average	-1696
▁websites	-1697
ged	-1698
SC	-1699
ec	-1700
▁cap	-1701
▁Would	-1702
▁z	-1703
▁guy	-1704
▁describ	-1705
▁ce	-1706
ounds	-1707
ething	-1708
▁Germany	-1709
▁private	-1710
ium	-1711
▁Gu	-1712
▁State	-1713
yth	-1714
rick	-1715
▁early	-1716
ana	-1717
ead	-1718
alore	-1719
▁single	-1720
▁benefits	-1721
▁something	-1722
ential	-1723
idd	-1724
ented	-1725
ech	-1726
ilt	-1727
less	-1728
▁195	-1729
▁let	-1730
▁Par	-1731
▁lim	-1732
▁log	-1733
▁final	-1734
▁games	-1735
▁girls	-1736
▁novel	-1737
▁views	-1738
▁Aug	-1739
▁opp	-1740
▁Phil	-1741
▁cult	-1742
▁Gover	-1743
▁determ	-1744
▁happens	-1745
▁perform	-1746
▁traffic	-1747
▁function	-1748
ole	-1749
▁Geor	-1750
▁each	-1751
▁face	-1752
▁note	-1753
▁avail	-1754
▁treat	-1755
▁return	-1756
por	-1757
▁14	-1758
,000	-1759
▁must	-1760
▁turn	-1761
▁Gmail	-1762
stit	-1763
▁God	-1764
▁Sept	-1765
ression	-1766
sh	-1767
▁national	-1768
▁available	-1769
eng	-1770
▁beaut	-1771
▁worth	-1772
▁repres	-1773
▁engineer	-1774
rew	-1775
rup	-1776
▁11	-1777
▁months	-1778
▁produced	-1779
cle	-1780
▁Kh	-1781
▁ep	-1782
▁194	-1783
ration	-1784
rem	-1785
read	-1786
order	-1787
▁break	-1788
▁third	-1789
▁prote	-1790
▁psych	-1791
▁League	-1792
urity	-1793
▁camp	-1794
▁relig	-1795
▁published	-1796
acy	-1797
ama	-1798
▁mix	-1799
▁side	-1800
▁talk	-1801
▁vote	-1802
▁apply	-1803
▁because	-1804
▁actually	-1805
▁girlfriend	-1806
ida	-1807
▁dem	-1808
▁news	-1809
ording	-1810
▁currency	-1811
▁Pl	-1812
▁Has	-1813
▁Mal	-1814
▁Cent	-1815
by	-1816
ored	-1817
▁Mich	-1818
olution	-1819
▁attract	-1820
ani	-1821
▁All	-1822
▁nat	-1823
▁mast	-1824
▁Ang	-1825
▁lit	-1826
▁pen	-1827
▁daugh	-1828
▁moment	-1829
ider	-1830
▁div	-1831
▁faster	-1832
ified	-1833
▁2015	-1834
▁sent	-1835
▁gener	-1836
▁August	-1837
▁easiest	-1838
ief	-1839
phone	-1840
▁formula	-1841
▁presidential	-1842
iful	-1843
▁always	-1844
uk	-1845
erc	-1846
▁official	-1847
▁Ass	-1848
▁deb	-1849
▁fre	-1850
▁based	-1851
formation	-1852
▁September	-1853
EO	-1854
▁ref	-1855
▁ideas	-1856
▁National	-1857
▁yourself	-1858
iod	-1859
owing	-1860
▁mass	-1861
▁favour	-1862
yn	-1863
aced	-1864
▁mag	-1865
▁pat	-1866
▁types	-1867
▁though	-1868
▁beautiful	-1869
ades	-1870
idge	-1871
▁flu	-1872
ville	-1873
▁meet	-1874
▁appro	-1875
▁motiv	-1876
▁advice	-1877
▁working	-1878
cial	-1879
rain	-1880
▁Mon	-1881
▁kind	-1882
▁strong	-1883
▁defe	-1884
▁sell	-1885
▁masturb	-1886
gar	-1887
rated	-1888
▁land	-1889
▁tips	-1890
▁tour	-1891
▁vers	-1892
▁stand	-1893
▁review	-1894
til	-1895
oint	-1896
▁193	-1897
ython	-1898
▁March	-1899
▁overcome	-1900
ense	-1901
ott	-1902
abad	-1903
▁cut	-1904
ances	-1905
▁They	-1906
ination	-1907
▁School	-1908
▁method	-1909
▁brother	-1910
▁station	-1911
▁;	-1912
ike	-1913
irth	-1914
ners	-1915
▁town	-1916
▁young	-1917
uary	-1918
▁Kore	-1919
▁Park	-1920
▁often	-1921
▁living	-1922
▁search	-1923
▁digital	-1924
▁favourite	-1925
af	-1926
▁ve	-1927
▁doesn	-1928
▁period	-1929
▁languages	-1930
▁IIT	-1931
▁ant	-1932
▁night	-1933
▁matter	-1934
▁Bangalore	-1935
▁cand	-1936
▁prom	-1937
▁pregn	-1938
▁others	-1939
eal	-1940
▁wife	-1941
▁After	-1942
▁story	-1943
▁Oct	-1944
▁lost	-1945
ovember	-1946
▁report	-1947
rupt	-1948
▁ast	-1949
▁dri	-1950
▁apps	-1951
▁heard	-1952
▁mother	-1953
▁remove	-1954
ara	-1955
arm	-1956
▁Mr	-1957
▁low	-1958
▁block	-1959
▁local	-1960
▁German	-1961
tal	-1962
aper	-1963
▁Wal	-1964
▁tem	-1965
▁nort	-1966
▁course	-1967
▁property	-1968
▁pot	-1969
▁Gold	-1970
▁Island	-1971
▁indust	-1972
▁within	-1973
▁network	-1974
▁November	-1975
▁coaching	-1976
urg	-1977
▁sw	-1978
iles	-1979
▁late	-1980
ico	-1981
lymp	-1982
▁die	-1983
▁Calif	-1984
ays	-1985
ves	-1986
▁Fl	-1987
ares	-1988
▁Mex	-1989
▁ele	-1990
▁hig	-1991
▁Afric	-1992
▁fight	-1993
amb	-1994
ondon	-1995
▁June	-1996
▁media	-1997
▁village	-1998
hor	-1999
omb	-2000
udd	-2001
aken	-2002
▁Comp	-2003
▁products	-2004
cl	-2005
ify	-2006
oms	-2007
oor	-2008
▁IN	-2009
▁iss	-2010
ental	-2011
▁famous	-2012
▁MS	-2013
▁San	-2014
▁tri	-2015
▁Earth	-2016
▁Whats	-2017
▁causes	-2018
▁Republic	-2019
▁Township	-2020
▁daughter	-2021
ives	-2022
ours	-2023
▁fem	-2024
itary	-2025
ornia	-2026
▁sout	-2027
▁built	-2028
▁order	-2029
▁until	-2030
▁schools	-2031
▁13	-2032
▁sn	-2033
▁Dav	-2034
rench	-2035
▁hate	-2036
▁join	-2037
▁becom	-2038
▁happy	-2039
▁track	-2040
▁compet	-2041
▁received	-2042
ases	-2043
ided	-2044
▁Mic	-2045
▁Dece	-2046
▁date	-2047
▁Olymp	-2048
▁birth	-2049
ulation	-2050
▁introdu	-2051
▁December	-2052
▁California	-2053
▁Ne	-2054
▁sour	-2055
▁London	-2056
▁Russia	-2057
▁compare	-2058
raz	-2059
▁el	-2060
ended	-2061
stand	-2062
▁cert	-2063
▁opin	-2064
oph	-2065
urs	-2066
iting	-2067
▁Char	-2068
▁July	-2069
▁funn	-2070
▁choose	-2071
ino	-2072
▁Sy	-2073
ever	-2074
▁Sal	-2075
▁cir	-2076
▁creat	-2077
▁exerc	-2078
▁internet	-2079
lu	-2080
ised	-2081
▁emb	-2082
▁vir	-2083
anger	-2084
▁sites	-2085
▁January	-2086
raw	-2087
▁25	-2088
▁nuc	-2089
▁mess	-2090
▁perm	-2091
▁safe	-2092
achine	-2093
▁billion	-2094
▁Government	-2095
lin	-2096
▁IAS	-2097
▁acne	-2098
itions	-2099
▁moved	-2100
▁struct	-2101
▁Indians	-2102
.?	-2103
▁Part	-2104
indows	-2105
▁There	-2106
▁level	-2107
▁rupees	-2108
▁advantages	-2109
▁Sm	-2110
riage	-2111
▁band	-2112
▁times	-2113
BI	-2114
ape	-2115
oon	-2116
▁cod	-2117
▁Dist	-2118
▁developed	-2119
▁preparation	-2120
rap	-2121
reek	-2122
▁His	-2123
▁cond	-2124
▁five	-2125
▁dream	-2126
▁French	-2127
▁general	-2128
aul	-2129
▁ey	-2130
▁teac	-2131
action	-2132
▁Apple	-2133
▁pract	-2134
▁greatest	-2135
of	-2136
▁sit	-2137
▁East	-2138
▁along	-2139
▁since	-2140
▁medical	-2141
▁international	-2142
rug	-2143
▁Ab	-2144
raft	-2145
▁past	-2146
▁conne	-2147
▁gradu	-2148
▁October	-2149
▁William	-2150
▁foreign	-2151
▁present	-2152
▁Japanese	-2153
▁UK	-2154
▁Dem	-2155
▁Did	-2156
▁dev	-2157
▁occ	-2158
ington	-2159
▁theory	-2160
▁special	-2161
▁speaking	-2162
cil	-2163
▁Ke	-2164
▁role	-2165
▁making	-2166
▁salary	-2167
let	-2168
▁192	-2169
anish	-2170
▁host	-2171
▁mult	-2172
▁rese	-2173
▁Coast	-2174
▁calcul	-2175
▁instead	-2176
▁problem	-2177
▁improvement	-2178
ask	-2179
oud	-2180
ched	-2181
▁house	-2182
▁named	-2183
▁communic	-2184
▁Bollywood	-2185
▁%	-2186
▁whe	-2187
▁Thom	-2188
▁following	-2189
ael	-2190
icy	-2191
ately	-2192
cript	-2193
erala	-2194
▁surv	-2195
▁Muslim	-2196
▁obs	-2197
▁Sing	-2198
▁activ	-2199
▁cause	-2200
▁investment	-2201
▁0	-2202
▁vol	-2203
ained	-2204
imate	-2205
ctions	-2206
▁District	-2207
▁tit	-2208
▁Rich	-2209
▁jobs	-2210
▁given	-2211
▁profile	-2212
▁teacher	-2213
omm	-2214
▁100	-2215
istry	-2216
▁coll	-2217
▁send	-2218
▁took	-2219
▁tool	-2220
▁type	-2221
▁allow	-2222
▁delete	-2223
▁impact	-2224
rav	-2225
▁port	-2226
▁Ir	-2227
ival	-2228
ormal	-2229
▁marriage	-2230
▁Gal	-2231
▁Kerala	-2232
▁opinion	-2233
SE	-2234
ned	-2235
▁191	-2236
▁six	-2237
▁tax	-2238
▁came	-2239
▁large	-2240
IT	-2241
ids	-2242
yder	-2243
▁step	-2244
▁modern	-2245
▁corrupt	-2246
How	-2247
aur	-2248
▁Pe	-2249
▁England	-2250
▁professional	-2251
key	-2252
▁50	-2253
▁MBA	-2254
▁Comm	-2255
utions	-2256
▁legal	-2257
▁score	-2258
▁pounds	-2259
▁quickly	-2260
▁security	-2261
▁Bro	-2262
▁red	-2263
▁share	-2264
▁changed	-2265
▁started	-2266
▁Bh	-2267
Book	-2268
anch	-2269
etic	-2270
ploy	-2271
ellig	-2272
veral	-2273
▁diff	-2274
yderabad	-2275
▁species	-2276
ij	-2277
band	-2278
ured	-2279
▁lot	-2280
▁may	-2281
▁easy	-2282
ailway	-2283
sc	-2284
▁21	-2285
▁cele	-2286
▁terror	-2287
▁technology	-2288
▁Tw	-2289
ndra	-2290
iddle	-2291
▁Rober	-2292
▁drink	-2293
▁spend	-2294
▁wrong	-2295
oke	-2296
osp	-2297
▁En	-2298
▁Gen	-2299
▁One	-2300
▁rad	-2301
attle	-2302
▁expected	-2303
▁understand	-2304
-1	-2305
otes	-2306
pril	-2307
west	-2308
▁Val	-2309
▁belly	-2310
▁university	-2311
▁information	-2312
aily	-2313
▁del	-2314
▁few	-2315
▁cred	-2316
▁fear	-2317
▁resp	-2318
▁value	-2319
▁humans	-2320
▁machine	-2321
▁picture	-2322
▁univers	-2323
▁boyfriend	-2324
alf	-2325
bit	-2326
▁Go	-2327
ster	-2328
▁2011	-2329
▁fail	-2330
▁spok	-2331
▁April	-2332
▁taken	-2333
▁officer	-2334
got	-2335
lam	-2336
istic	-2337
▁King	-2338
▁avoid	-2339
arendra	-2340
▁region	-2341
▁chemical	-2342
avy	-2343
med	-2344
obal	-2345
▁got	-2346
▁sym	-2347
▁announ	-2348
▁height	-2349
▁resour	-2350
▁Narendra	-2351
▁cy	-2352
imum	-2353
▁JEE	-2354
rical	-2355
▁George	-2356
▁Pol	-2357
ography	-2358
▁Michael	-2359
era	-2360
oad	-2361
▁Tur	-2362
field	-2363
▁crit	-2364
▁force	-2365
▁ident	-2366
▁military	-2367
unicip	-2368
▁const	-2369
ifically	-2370
▁funniest	-2371
nam	-2372
row	-2373
ude	-2374
▁CA	-2375
hing	-2376
otic	-2377
cient	-2378
▁india	-2379
ee	-2380
ey	-2381
▁₹	-2382
bor	-2383
▁Gl	-2384
aves	-2385
oice	-2386
▁Med	-2387
▁fix	-2388
▁sum	-2389
▁full	-2390
▁Windows	-2391
▁options	-2392
▁institute	-2393
▁ly	-2394
▁cle	-2395
ought	-2396
▁epis	-2397
▁James	-2398
▁exact	-2399
▁works	-2400
▁intellig	-2401
▁original	-2402
▁studying	-2403
App	-2404
cum	-2405
▁INR	-2406
▁hor	-2407
▁High	-2408
▁east	-2409
ouncil	-2410
▁daily	-2411
▁member	-2412
▁object	-2413
▁result	-2414
▁select	-2415
ya	-2416
inal	-2417
▁Cor	-2418
epend	-2419
icult	-2420
▁Jack	-2421
▁rate	-2422
▁model	-2423
▁nuclear	-2424
▁evidence	-2425
bl	-2426
go	-2427
na	-2428
off	-2429
inist	-2430
umbai	-2431
▁2014	-2432
▁sold	-2433
▁wear	-2434
▁Mount	-2435
▁likes	-2436
▁expand	-2437
ological	-2438
▁members	-2439
▁research	-2440
aun	-2441
ses	-2442
ume	-2443
▁lov	-2444
hemat	-2445
▁pupp	-2446
▁basic	-2447
▁total	-2448
▁author	-2449
▁distance	-2450
side	-2451
utes	-2452
▁Python	-2453
▁WhatsApp	-2454
antic	-2455
▁emot	-2456
▁tribut	-2457
▁currently	-2458
aff	-2459
hel	-2460
rab	-2461
▁24	-2462
rael	-2463
▁But	-2464
▁put	-2465
▁appear	-2466
▁several	-2467
▁transfer	-2468
▁Americans	-2469
▁depression	-2470
▁management	-2471
▁Big	-2472
▁deg	-2473
▁College	-2474
ray	-2475
▁Des	-2476
▁Feb	-2477
ledge	-2478
▁code	-2479
▁actor	-2480
▁commer	-2481
▁police	-2482
▁Spanish	-2483
▁Minister	-2484
▁defeated	-2485
edy	-2486
year	-2487
▁Red	-2488
ruary	-2489
▁prev	-2490
▁capital	-2491
ha	-2492
▁Me	-2493
ators	-2494
▁deep	-2495
▁Angel	-2496
▁colle	-2497
▁Democr	-2498
▁Robert	-2499
▁topics	-2500
▁February	-2501
▁Bel	-2502
▁arch	-2503
▁loss	-2504
▁Africa	-2505
▁France	-2506
▁Mexico	-2507
▁strate	-2508
▁videos	-2509
▁experien	-2510
▁Hollywood	-2511
adv	-2512
reet	-2513
▁cop	-2514
ences	-2515
▁able	-2516
▁comb	-2517
▁conc	-2518
▁text	-2519
ederal	-2520
▁least	-2521
▁weird	-2522
▁eating	-2523
▁healthy	-2524
▁include	-2525
ica	-2526
▁Ag	-2527
ania	-2528
orts	-2529
soft	-2530
▁dou	-2531
▁2008	-2532
▁2012	-2533
▁case	-2534
▁situ	-2535
▁chann	-2536
▁cheap	-2537
▁needing	-2538
▁European	-2539
▁directed	-2540
▁replaced	-2541
ky	-2542
rom	-2543
▁IQ	-2544
▁Bay	-2545
▁Jew	-2546
▁Mel	-2547
▁dest	-2548
▁center	-2549
ification	-2550
▁pregnant	-2551
▁signific	-2552
▁difficult	-2553
▁political	-2554
▁Dr	-2555
▁CAT	-2556
▁Sup	-2557
▁anx	-2558
▁cast	-2559
▁drug	-2560
ference	-2561
▁Mumbai	-2562
▁collect	-2563
bert	-2564
used	-2565
▁far	-2566
▁smok	-2567
ensive	-2568
▁David	-2569
▁House	-2570
▁press	-2571
▁across	-2572
▁female	-2573
▁es	-2574
▁ra	-2575
▁Ale	-2576
▁hom	-2577
ready	-2578
▁rock	-2579
▁tributary	-2580
gor	-2581
yle	-2582
▁tow	-2583
aming	-2584
vince	-2585
▁Party	-2586
▁brain	-2587
itional	-2588
▁Israel	-2589
▁accept	-2590
▁electron	-2591
▁knowledge	-2592
▁everything	-2593
ari	-2594
icle	-2595
icles	-2596
▁price	-2597
artment	-2598
▁contact	-2599
▁physics	-2600
▁Ob	-2601
adem	-2602
iate	-2603
itar	-2604
▁told	-2605
▁influ	-2606
▁party	-2607
▁those	-2608
▁Romania	-2609
▁version	-2610
par	-2611
▁IT	-2612
▁ap	-2613
rote	-2614
ising	-2615
rying	-2616
▁star	-2617
ressed	-2618
▁corruption	-2619
▁Em	-2620
atter	-2621
▁gift	-2622
▁meas	-2623
▁rich	-2624
▁drive	-2625
▁disadv	-2626
▁forget	-2627
▁global	-2628
▁electric	-2629
▁everyone	-2630
▁smartphone	-2631
▁communication	-2632
▁demonetization	-2633
oe	-2634
rie	-2635
rect	-2636
ston	-2637
▁abs	-2638
▁gay	-2639
▁hus	-2640
▁Paul	-2641
▁crush	-2642
▁teach	-2643
▁Thomas	-2644
▁building	-2645
ony	-2646
▁Je	-2647
▁los	-2648
▁Hind	-2649
rosoft	-2650
▁Black	-2651
▁normal	-2652
▁already	-2653
▁husband	-2654
▁Hyderabad	-2655
.5	-2656
aim	-2657
arc	-2658
ius	-2659
▁PC	-2660
icks	-2661
know	-2662
▁Acc	-2663
▁Her	-2664
▁Tex	-2665
▁rac	-2666
▁math	-2667
▁mist	-2668
ention	-2669
▁island	-2670
▁perman	-2671
▁culture	-2672
▁exercise	-2673
▁northern	-2674
▁required	-2675
▁southern	-2676
▁preparing	-2677
ique	-2678
olic	-2679
▁cust	-2680
▁title	-2681
▁access	-2682
▁century	-2683
▁according	-2684
uf	-2685
urch	-2686
▁Ber	-2687
▁Mah	-2688
▁Port	-2689
▁fire	-2690
▁analy	-2691
▁board	-2692
▁prevent	-2693
▁announced	-2694
▁prop	-2695
change	-2696
▁Elect	-2697
▁close	-2698
▁hours	-2699
▁connect	-2700
▁natural	-2701
▁problems	-2702
▁religion	-2703
▁Microsoft	-2704
▁universities	-2705
..	-2706
for	-2707
iol	-2708
▁SA	-2709
bour	-2710
itch	-2711
▁decl	-2712
▁held	-2713
atures	-2714
orning	-2715
▁clear	-2716
▁assist	-2717
▁necess	-2718
▁secret	-2719
▁disadvantages	-2720
gs	-2721
ots	-2722
uth	-2723
lock	-2724
rast	-2725
erson	-2726
▁away	-2727
▁rout	-2728
assing	-2729
▁scope	-2730
▁sound	-2731
▁player	-2732
▁screen	-2733
▁simple	-2734
▁elected	-2735
▁reasons	-2736
▁industry	-2737
▁Ser	-2738
▁cup	-2739
▁ess	-2740
eared	-2741
olved	-2742
▁Mary	-2743
▁half	-2744
▁tele	-2745
▁medic	-2746
▁employ	-2747
▁fastest	-2748
▁founded	-2749
00?	-2750
gen	-2751
nes	-2752
▁wall	-2753
▁exams	-2754
fficient	-2755
▁Richard	-2756
▁example	-2757
ester	-2758
▁amaz	-2759
▁Islam	-2760
▁infin	-2761
▁peace	-2762
▁amount	-2763
▁histor	-2764
▁office	-2765
▁served	-2766
▁writer	-2767
▁anxiety	-2768
▁municip	-2769
▁previous	-2770
yp	-2771
oes	-2772
ander	-2773
▁2010	-2774
▁Just	-2775
▁cool	-2776
▁male	-2777
▁poor	-2778
▁prim	-2779
▁went	-2780
▁financ	-2781
▁tested	-2782
▁playing	-2783
▁anything	-2784
▁developer	-2785
yl	-2786
cel	-2787
▁26	-2788
▁IS	-2789
rent	-2790
▁Was	-2791
▁cat	-2792
▁ill	-2793
▁mic	-2794
iment	-2795
▁remov	-2796
▁weeks	-2797
▁celebr	-2798
▁policy	-2799
▁deleted	-2800
▁studies	-2801
▁subject	-2802
▁western	-2803
stitution	-2804
axy	-2805
duct	-2806
empt	-2807
iron	-2808
itor	-2809
▁188	-2810
▁Sec	-2811
▁ren	-2812
▁dogs	-2813
▁qual	-2814
idency	-2815
▁photo	-2816
▁embarr	-2817
▁marked	-2818
▁source	-2819
▁morning	-2820
▁perfect	-2821
▁community	-2822
▁elections	-2823
ks	-2824
uel	-2825
cing	-2826
▁190	-2827
▁Roy	-2828
▁ang	-2829
▁From	-2830
▁hire	-2831
▁once	-2832
▁began	-2833
▁tiles	-2834
▁toget	-2835
▁highest	-2836
▁resources	-2837
▁internship	-2838
▁40	-2839
roll	-2840
▁SEO	-2841
▁sug	-2842
▁diet	-2843
▁doll	-2844
▁teen	-2845
overed	-2846
▁Harry	-2847
▁Korea	-2848
▁blood	-2849
ampions	-2850
▁numbers	-2851
▁suggest	-2852
▁application	-2853
.2	-2854
ffe	-2855
rep	-2856
tar	-2857
ails	-2858
aire	-2859
body	-2860
oral	-2861
▁186	-2862
▁Fin	-2863
▁Los	-2864
▁sat	-2865
iable	-2866
▁clean	-2867
▁quant	-2868
▁river	-2869
▁together	-2870
▁training	-2871
▁weirdest	-2872
▁commercial	-2873
▁scientifically	-2874
raq	-2875
ivid	-2876
▁Vir	-2877
▁arg	-2878
▁mer	-2879
▁vac	-2880
arter	-2881
▁here	-2882
▁Texas	-2883
▁wrote	-2884
▁flight	-2885
▁convers	-2886
▁courses	-2887
▁described	-2888
▁functions	-2889
ago	-2890
▁Jim	-2891
▁Lou	-2892
▁Pot	-2893
▁size	-2894
▁stri	-2895
▁areas	-2896
▁check	-2897
▁doctor	-2898
to	-2899
idae	-2900
rate	-2901
▁Pat	-2902
▁Res	-2903
▁tre	-2904
▁cold	-2905
▁race	-2906
ricket	-2907
▁Peter	-2908
▁event	-2909
▁green	-2910
aterial	-2911
▁likely	-2912
▁Olympics	-2913
▁beginner	-2914
▁presence	-2915
▁province	-2916
▁watching	-2917
▁International	-2918
iff	-2919
ops	-2920
▁hur	-2921
▁fres	-2922
▁Italy	-2923
▁among	-2924
▁floor	-2925
▁heart	-2926
ability	-2927
▁Central	-2928
▁reading	-2929
▁colleges	-2930
▁director	-2931
▁projects	-2932
mar	-2933
▁ur	-2934
▁Net	-2935
▁saf	-2936
craft	-2937
▁2007	-2938
▁Mart	-2939
▁With	-2940
▁grav	-2941
▁stat	-2942
▁whom	-2943
▁Franc	-2944
▁react	-2945
▁sales	-2946
▁credit	-2947
▁gaming	-2948
▁mathemat	-2949
▁recorded	-2950
▁thinking	-2951
▁potential	-2952
▁_	-2953
har	-2954
reg	-2955
sequ	-2956
▁185	-2957
▁rom	-2958
▁Iraq	-2959
▁degree	-2960
▁Philipp	-2961
▁earthqu	-2962
▁positive	-2963
▁necessary	-2964
▁applications	-2965
Why	-2966
edd	-2967
▁23	-2968
ring	-2969
▁2013	-2970
▁print	-2971
▁table	-2972
▁candid	-2973
▁custom	-2974
▁dating	-2975
▁double	-2976
▁prefer	-2977
▁Angeles	-2978
▁Russian	-2979
▁amazing	-2980
▁followers	-2981
het	-2982
▁UP	-2983
▁189	-2984
▁Bal	-2985
▁aff	-2986
anced	-2987
▁capt	-2988
▁hold	-2989
▁laws	-2990
▁prob	-2991
▁Could	-2992
▁docum	-2993
▁front	-2994
▁parts	-2995
▁proof	-2996
▁border	-2997
▁listen	-2998
▁photos	-2999
▁exactly	-3000
▁Nor	-3001
▁Sch	-3002
▁Tor	-3003
▁ach	-3004
▁Year	-3005
▁Great	-3006
▁estab	-3007
ividual	-3008
▁arrest	-3009
▁killed	-3010
▁appoint	-3011
aud	-3012
▁IB	-3013
ancy	-3014
ecut	-3015
▁fly	-3016
▁pred	-3017
istics	-3018
▁range	-3019
▁coding	-3020
▁contin	-3021
▁estate	-3022
▁forgot	-3023
▁memory	-3024
▁recomm	-3025
▁temper	-3026
▁birthday	-3027
▁beginners	-3028
PS	-3029
ze	-3030
ena	-3031
uit	-3032
yer	-3033
▁aw	-3034
Tech	-3035
cont	-3036
ises	-3037
▁Mad	-3038
▁neg	-3039
itect	-3040
▁Zeal	-3041
▁didn	-3042
▁weed	-3043
▁names	-3044
▁Valley	-3045
▁letter	-3046
▁returned	-3047
.1	-3048
ATE	-3049
▁Ol	-3050
▁Dep	-3051
▁Pal	-3052
▁sus	-3053
ached	-3054
heast	-3055
▁moon	-3056
▁words	-3057
▁continu	-3058
▁smoking	-3059
▁trading	-3060
▁22	-3061
▁Mor	-3062
▁Rob	-3063
▁fac	-3064
ufact	-3065
▁club	-3066
▁pack	-3067
▁phil	-3068
▁paper	-3069
▁Council	-3070
▁Zealand	-3071
▁regular	-3072
▁cheating	-3073
▁determine	-3074
▁individual	-3075
▁embarrassing	-3076
▁wa	-3077
iday	-3078
ourn	-3079
road	-3080
▁SSC	-3081
▁wat	-3082
known	-3083
ortun	-3084
▁laun	-3085
▁Assoc	-3086
▁Smith	-3087
▁court	-3088
▁marks	-3089
▁joined	-3090
▁related	-3091
▁stories	-3092
▁investig	-3093
▁material	-3094
▁existence	-3095
unt	-3096
▁60	-3097
iple	-3098
most	-3099
asing	-3100
opath	-3101
▁Dani	-3102
▁GATE	-3103
▁Road	-3104
gorith	-3105
▁brand	-3106
▁crack	-3107
▁liter	-3108
▁active	-3109
▁buying	-3110
▁longer	-3111
▁opened	-3112
▁episode	-3113
▁followed	-3114
▁financial	-3115
be	-3116
ogn	-3117
uff	-3118
▁Ma	-3119
▁bo	-3120
▁er	-3121
play	-3122
▁Per	-3123
▁Sen	-3124
▁sun	-3125
apore	-3126
▁Mark	-3127
▁Wash	-3128
▁hole	-3129
▁puppy	-3130
▁separ	-3131
▁users	-3132
▁Street	-3133
▁differ	-3134
▁install	-3135
▁society	-3136
▁Internet	-3137
▁composed	-3138
▁position	-3139
▁recovery	-3140
▁population	-3141
▁CG	-3142
ager	-3143
oles	-3144
▁187	-3145
▁Hen	-3146
▁foc	-3147
▁oil	-3148
ellow	-3149
▁viol	-3150
▁penis	-3151
▁reset	-3152
▁shares	-3153
▁useful	-3154
▁Western	-3155
▁actress	-3156
▁infinite	-3157
ery	-3158
nor	-3159
och	-3160
burg	-3161
itiz	-3162
▁Bre	-3163
▁scr	-3164
pping	-3165
reams	-3166
▁Cong	-3167
▁anal	-3168
▁terms	-3169
ibility	-3170
▁General	-3171
▁independ	-3172
▁manufact	-3173
▁Singapore	-3174
OS	-3175
ny	-3176
rum	-3177
zer	-3178
hatt	-3179
▁ball	-3180
▁claim	-3181
▁lyric	-3182
▁animals	-3183
▁whether	-3184
ampionship	-3185
▁electrical	-3186
ett	-3187
opp	-3188
ches	-3189
iber	-3190
ires	-3191
▁rul	-3192
gress	-3193
▁Khan	-3194
▁Penn	-3195
▁paid	-3196
▁rank	-3197
▁road	-3198
▁Frank	-3199
▁Obama	-3200
▁White	-3201
▁central	-3202
▁concent	-3203
▁primary	-3204
▁algorith	-3205
BS	-3206
gal	-3207
rene	-3208
▁Ben	-3209
▁Sun	-3210
▁bit	-3211
▁fig	-3212
▁lat	-3213
▁else	-3214
▁Union	-3215
▁round	-3216
▁steps	-3217
▁debate	-3218
▁nothing	-3219
▁administ	-3220
▁29	-3221
amil	-3222
iano	-3223
▁cry	-3224
▁key	-3225
▁rev	-3226
inary	-3227
rolog	-3228
▁anime	-3229
▁immig	-3230
▁Potter	-3231
▁democr	-3232
▁novels	-3233
▁Charles	-3234
▁becomes	-3235
▁feeling	-3236
▁railway	-3237
▁starting	-3238
▁earthquake	-3239
▁personality	-3240
men	-3241
sel	-3242
ging	-3243
olar	-3244
▁dom	-3245
▁via	-3246
▁Pune	-3247
▁guys	-3248
▁ille	-3249
▁shot	-3250
etimes	-3251
▁graph	-3252
▁tools	-3253
▁correct	-3254
201	-3255
ipl	-3256
▁ge	-3257
cast	-3258
▁pan	-3259
▁tou	-3260
▁2003	-3261
▁init	-3262
▁below	-3263
▁limit	-3264
▁chances	-3265
▁towards	-3266
▁consider	-3267
▁features	-3268
BC	-3269
ps	-3270
dom	-3271
vey	-3272
inux	-3273
rian	-3274
▁voc	-3275
▁Alex	-3276
▁Braz	-3277
▁Cour	-3278
▁cupc	-3279
▁sister	-3280
▁largest	-3281
▁Canadian	-3282
▁appeared	-3283
▁strategy	-3284
wh	-3285
oma	-3286
▁By	-3287
cher	-3288
iams	-3289
▁Mil	-3290
▁bal	-3291
iated	-3292
water	-3293
▁Lake	-3294
▁philos	-3295
▁proced	-3296
▁script	-3297
▁various	-3298
▁structure	-3299
▁determined	-3300
▁masturbation	-3301
olk	-3302
math	-3303
oted	-3304
▁Inc	-3305
▁Tom	-3306
atory	-3307
udden	-3308
▁2009	-3309
▁skin	-3310
▁guitar	-3311
▁survive	-3312
▁represent	-3313
▁statement	-3314
▁Australian	-3315
▁municipality	-3316
ST	-3317
aps	-3318
mas	-3319
gets	-3320
hood	-3321
▁Mag	-3322
▁Sim	-3323
adesh	-3324
▁quit	-3325
▁scra	-3326
▁cells	-3327
▁hacker	-3328
▁transl	-3329
▁Muslims	-3330
▁factors	-3331
▁Williams	-3332
▁romantic	-3333
▁architect	-3334
▁chemistry	-3335
▁Washington	-3336
▁presidency	-3337
emb	-3338
ero	-3339
olf	-3340
face	-3341
▁Hol	-3342
▁den	-3343
▁gym	-3344
▁Swed	-3345
▁cash	-3346
▁cook	-3347
▁curb	-3348
ournal	-3349
▁above	-3350
▁added	-3351
▁hacks	-3352
▁leave	-3353
▁marry	-3354
▁store	-3355
▁Brazil	-3356
▁formed	-3357
▁partner	-3358
▁politic	-3359
▁opportun	-3360
▁standard	-3361
▁sometimes	-3362
ta	-3363
new	-3364
unc	-3365
▁Goa	-3366
▁2006	-3367
▁miss	-3368
▁shows	-3369
▁Jewish	-3370
▁except	-3371
▁Francis	-3372
▁winning	-3373
▁included	-3374
▁efficient	-3375
ki	-3376
▁et	-3377
ffee	-3378
fort	-3379
▁enc	-3380
▁led	-3381
▁Form	-3382
▁Jose	-3383
▁tall	-3384
lement	-3385
▁Prime	-3386
▁wants	-3387
reprene	-3388
▁worked	-3389
▁MacBook	-3390
▁allowed	-3391
▁federal	-3392
▁scratch	-3393
▁Congress	-3394
▁represented	-3395
.6	-3396
yr	-3397
000?	-3398
aign	-3399
▁jud	-3400
▁ple	-3401
▁pri	-3402
ender	-3403
▁gold	-3404
▁Linux	-3405
▁Wales	-3406
▁assoc	-3407
▁growth	-3408
▁master	-3409
▁native	-3410
▁Company	-3411
▁concept	-3412
▁protect	-3413
▁release	-3414
▁economic	-3415
▁Republican	-3416
ae	-3417
hew	-3418
▁Sir	-3419
▁bed	-3420
▁cam	-3421
▁rob	-3422
iance	-3423
inter	-3424
wered	-3425
▁file	-3426
ension	-3427
▁altern	-3428
▁banned	-3429
▁chance	-3430
▁cities	-3431
▁reserv	-3432
▁negative	-3433
de	-3434
mi	-3435
▁/	-3436
ala	-3437
▁27	-3438
▁La	-3439
▁eth	-3440
▁agre	-3441
▁athe	-3442
▁subs	-3443
astern	-3444
though	-3445
▁defin	-3446
▁hands	-3447
▁sympt	-3448
▁groups	-3449
▁promote	-3450
▁running	-3451
▁describe	-3452
.7	-3453
oan	-3454
▁PM	-3455
▁Lee	-3456
▁bab	-3457
▁bur	-3458
▁sea	-3459
aught	-3460
▁Ital	-3461
▁Star	-3462
▁uses	-3463
▁wish	-3464
▁resol	-3465
▁coffee	-3466
▁leader	-3467
▁profit	-3468
▁states	-3469
▁stress	-3470
▁sudden	-3471
▁viewed	-3472
▁cricket	-3473
▁restaur	-3474
▁campaign	-3475
.0	-3476
mir	-3477
▁Reg	-3478
▁bar	-3479
▁lab	-3480
▁Serv	-3481
▁bill	-3482
▁page	-3483
▁Daniel	-3484
▁During	-3485
▁certain	-3486
▁sentence	-3487
▁specific	-3488
▁Christian	-3489
▁addiction	-3490
++	-3491
CA	-3492
ems	-3493
pro	-3494
▁HP	-3495
▁No	-3496
back	-3497
irit	-3498
rial	-3499
▁Sam	-3500
▁aud	-3501
▁ord	-3502
abeth	-3503
itude	-3504
▁Bill	-3505
▁circ	-3506
▁prot	-3507
▁Court	-3508
▁Creek	-3509
▁serve	-3510
▁Edward	-3511
▁stocks	-3512
▁Airport	-3513
▁creative	-3514
aph	-3515
sec	-3516
anda	-3517
azon	-3518
host	-3519
reme	-3520
▁Mat	-3521
▁dia	-3522
▁lic	-3523
▁pow	-3524
rones	-3525
▁Sant	-3526
phones	-3527
reland	-3528
▁lines	-3529
blowing	-3530
ecutive	-3531
▁danger	-3532
▁Ancient	-3533
▁himself	-3534
▁manager	-3535
▁becoming	-3536
▁symptoms	-3537
▁entreprene	-3538
▁intelligence	-3539
RE	-3540
▁IP	-3541
alle	-3542
berg	-3543
erry	-3544
▁dam	-3545
venue	-3546
▁Eliz	-3547
▁plat	-3548
▁soon	-3549
airman	-3550
vision	-3551
▁bring	-3552
▁Engine	-3553
▁needed	-3554
▁sexual	-3555
▁spoken	-3556
▁achieve	-3557
▁complet	-3558
▁arrested	-3559
▁contract	-3560
▁powerful	-3561
▁programmer	-3562
den	-3563
oni	-3564
rey	-3565
ued	-3566
▁PO	-3567
iger	-3568
▁sch	-3569
▁2005	-3570
▁Game	-3571
▁draw	-3572
▁feed	-3573
▁purch	-3574
▁Virgin	-3575
▁hotels	-3576
▁manage	-3577
▁minimum	-3578
▁systems	-3579
▁designer	-3580
▁pictures	-3581
▁condition	-3582
val	-3583
▁Ac	-3584
odes	-3585
▁CGL	-3586
▁Hit	-3587
▁Chic	-3588
▁base	-3589
▁eyes	-3590
▁hosp	-3591
▁color	-3592
▁grand	-3593
▁singer	-3594
▁Ireland	-3595
▁looking	-3596
▁physical	-3597
▁pressure	-3598
▁appointed	-3599
▁officials	-3600
▁importance	-3601
▁Association	-3602
▁transaction	-3603
la	-3604
500	-3605
ona	-3606
uum	-3607
onym	-3608
xual	-3609
▁Pet	-3610
▁ans	-3611
▁sil	-3612
ctors	-3613
ither	-3614
▁blue	-3615
▁Chief	-3616
▁Greek	-3617
▁Scott	-3618
▁frequ	-3619
▁newsp	-3620
ivision	-3621
▁middle	-3622
▁consequ	-3623
▁serious	-3624
▁complete	-3625
▁cupcakes	-3626
▁painless	-3627
▁remember	-3628
▁philosoph	-3629
▁31	-3630
▁Lab	-3631
▁Arab	-3632
▁sett	-3633
▁citiz	-3634
▁films	-3635
▁Amazon	-3636
▁inside	-3637
▁taking	-3638
▁Italian	-3639
▁address	-3640
▁usually	-3641
▁answered	-3642
▁According	-3643
ota	-3644
time	-3645
▁gad	-3646
▁god	-3647
▁Sund	-3648
▁flat	-3649
▁purs	-3650
▁says	-3651
urally	-3652
▁Group	-3653
▁hotel	-3654
▁liber	-3655
▁offer	-3656
▁option	-3657
▁Chicago	-3658
▁particip	-3659
▁solution	-3660
ati	-3661
mit	-3662
▁Sl	-3663
agon	-3664
aith	-3665
atin	-3666
head	-3667
▁Bur	-3668
▁Pok	-3669
pects	-3670
▁Cath	-3671
▁acqu	-3672
▁fake	-3673
pecial	-3674
▁Green	-3675
▁cross	-3676
▁miles	-3677
▁oppos	-3678
▁style	-3679
▁latest	-3680
▁losing	-3681
▁moving	-3682
▁remain	-3683
▁require	-3684
▁respons	-3685
▁minister	-3686
▁Elizabeth	-3687
▁completed	-3688
▁investors	-3689
▁confidence	-3690
▁interested	-3691
VP	-3692
isl	-3693
roy	-3694
uge	-3695
iter	-3696
mark	-3697
▁mut	-3698
▁pet	-3699
astic	-3700
▁2002	-3701
▁Coll	-3702
▁magn	-3703
▁pick	-3704
▁Louis	-3705
▁mount	-3706
▁radio	-3707
▁afford	-3708
▁nation	-3709
▁complex	-3710
▁approach	-3711
▁treatment	-3712
.9	-3713
ios	-3714
joy	-3715
▁Mu	-3716
upid	-3717
▁Lew	-3718
▁Raj	-3719
▁Sar	-3720
▁dat	-3721
▁fur	-3722
▁pim	-3723
aving	-3724
▁cure	-3725
▁suit	-3726
amsung	-3727
▁Spain	-3728
▁lower	-3729
▁prime	-3730
▁little	-3731
▁lyrics	-3732
▁summer	-3733
▁Britain	-3734
▁attempt	-3735
▁illegal	-3736
▁learned	-3737
▁planets	-3738
▁provide	-3739
▁production	-3740
▁consequences	-3741
.3	-3742
NA	-3743
isc	-3744
▁km	-3745
▁Sea	-3746
▁Soc	-3747
▁due	-3748
aches	-3749
iving	-3750
umber	-3751
▁2001	-3752
▁UPSC	-3753
▁link	-3754
▁user	-3755
bourne	-3756
▁whole	-3757
▁Hitler	-3758
▁dreams	-3759
▁signed	-3760
▁stupid	-3761
chnology	-3762
▁channel	-3763
▁hacking	-3764
▁compared	-3765
▁disorder	-3766
▁calculate	-3767
▁scrapping	-3768
▁scientific	-3769
ola	-3770
▁WW	-3771
ably	-3772
▁CEO	-3773
▁hon	-3774
▁ris	-3775
▁Mass	-3776
▁Some	-3777
▁wins	-3778
selves	-3779
▁alone	-3780
▁broad	-3781
▁ghost	-3782
▁teams	-3783
ionally	-3784
ruction	-3785
▁Columb	-3786
▁consum	-3787
▁entire	-3788
▁inspir	-3789
▁recent	-3790
esterday	-3791
▁Formula	-3792
▁convince	-3793
▁messages	-3794
▁dangerous	-3795
▁established	-3796
▁temperature	-3797
ada	-3798
imb	-3799
not	-3800
oul	-3801
unk	-3802
▁28	-3803
▁max	-3804
▁ten	-3805
ivity	-3806
▁dise	-3807
▁kids	-3808
▁pron	-3809
▁slit	-3810
etball	-3811
▁coast	-3812
▁neigh	-3813
▁Friday	-3814
▁Monday	-3815
▁income	-3816
▁gadgets	-3817
▁leaders	-3818
▁politics	-3819
▁percentage	-3820
▁experienced	-3821
50	-3822
IM	-3823
ini	-3824
osh	-3825
▁GM	-3826
▁So	-3827
▁Su	-3828
▁Jio	-3829
▁Met	-3830
▁Sil	-3831
▁bul	-3832
▁dry	-3833
▁eye	-3834
allen	-3835
izing	-3836
▁2004	-3837
▁Best	-3838
▁Sand	-3839
▁Vict	-3840
▁flow	-3841
▁joke	-3842
▁slow	-3843
▁weak	-3844
atives	-3845
▁Henry	-3846
▁candy	-3847
▁lived	-3848
▁plans	-3849
▁obsess	-3850
▁However	-3851
▁Samsung	-3852
▁accounts	-3853
▁astrolog	-3854
▁medicine	-3855
▁platform	-3856
▁Christmas	-3857
▁candidate	-3858
▁characters	-3859
▁completely	-3860
ss	-3861
▁“	-3862
▁CP	-3863
▁Dh	-3864
ceed	-3865
liam	-3866
onto	-3867
ooth	-3868
▁Ant	-3869
▁Wil	-3870
▁gas	-3871
merce	-3872
viron	-3873
▁Flor	-3874
▁Iran	-3875
▁Miss	-3876
▁Scot	-3877
▁burn	-3878
▁drop	-3879
▁feet	-3880
▁scar	-3881
▁soci	-3882
▁wave	-3883
▁These	-3884
▁dress	-3885
▁princ	-3886
▁signs	-3887
▁waves	-3888
▁action	-3889
▁turned	-3890
▁Toronto	-3891
▁discont	-3892
▁exchange	-3893
▁reported	-3894
▁recommend	-3895
▁Philippines	-3896
▁resolutions	-3897
VPY	-3898
add	-3899
ali	-3900
ita	-3901
aged	-3902
erve	-3903
omet	-3904
reng	-3905
▁Cam	-3906
▁upd	-3907
▁yet	-3908
▁KVPY	-3909
▁army	-3910
▁vict	-3911
▁visa	-3912
itness	-3913
▁autom	-3914
▁solve	-3915
▁almost	-3916
▁cancer	-3917
▁prison	-3918
▁speech	-3919
▁comfort	-3920
▁explain	-3921
▁performed	-3922
▁assistance	-3923
▁completing	-3924
▁mathematics	-3925
rd	-3926
gas	-3927
▁di	-3928
irst	-3929
ores	-3930
▁Que	-3931
▁Tem	-3932
▁dim	-3933
▁inn	-3934
▁pie	-3935
▁squ	-3936
▁Bush	-3937
▁Kash	-3938
▁Mont	-3939
▁issue	-3940
▁plant	-3941
▁urine	-3942
liament	-3943
▁Galaxy	-3944
▁compos	-3945
▁enough	-3946
▁designed	-3947
▁imported	-3948
▁practice	-3949
▁naturally	-3950
▁yesterday	-3951
▁effectively	-3952
▁permanently	-3953
▁opportunities	-3954
me	-3955
ux	-3956
affy	-3957
iens	-3958
more	-3959
▁hit	-3960
▁reb	-3961
▁Matt	-3962
▁clos	-3963
▁park	-3964
▁Force	-3965
▁forms	-3966
▁lives	-3967
ilities	-3968
▁advert	-3969
▁animal	-3970
▁horror	-3971
▁points	-3972
▁Virginia	-3973
▁everyday	-3974
▁fluently	-3975
▁qualities	-3976
▁independent	-3977
.4	-3978
ka	-3979
tt	-3980
lor	-3981
pur	-3982
ste	-3983
▁To	-3984
iers	-3985
ques	-3986
tain	-3987
▁Rec	-3988
▁Sum	-3989
▁Tim	-3990
▁tro	-3991
▁yes	-3992
itter	-3993
oring	-3994
press	-3995
▁Lord	-3996
▁beat	-3997
▁Paris	-3998
▁comes	-3999
▁enjoy	-4000
▁faith	-4001
▁funds	-4002
▁refer	-4003
▁truth	-4004
▁Korean	-4005
▁charge	-4006
▁higher	-4007
▁lawyer	-4008
▁Station	-4009
▁eastern	-4010
▁organic	-4011
▁workout	-4012
▁Division	-4013
▁admission	-4014
▁investing	-4015
▁introduced	-4016
CS	-4017
fl	-4018
garh	-4019
▁183	-4020
▁Mer	-4021
▁isn	-4022
▁rap	-4023
▁upv	-4024
orial	-4025
▁tick	-4026
▁weap	-4027
▁Royal	-4028
▁accom	-4029
▁datab	-4030
▁image	-4031
ributed	-4032
▁Battle	-4033
▁caused	-4034
▁choice	-4035
▁closed	-4036
▁coming	-4037
▁rather	-4038
▁regret	-4039
▁vacuum	-4040
▁outside	-4041
▁cultural	-4042
▁motivated	-4043
IS	-4044
edi	-4045
ipe	-4046
tic	-4047
uan	-4048
wan	-4049
▁Cr	-4050
ican	-4051
pped	-4052
▁exc	-4053
▁iOS	-4054
▁lon	-4055
▁mid	-4056
▁ste	-4057
iller	-4058
▁1990	-4059
▁Nort	-4060
▁Stud	-4061
▁grew	-4062
▁wake	-4063
▁might	-4064
▁owned	-4065
▁stopp	-4066
▁trust	-4067
▁compon	-4068
▁saying	-4069
▁Florida	-4070
▁ability	-4071
▁blocked	-4072
▁content	-4073
▁journal	-4074
vironment	-4075
▁Football	-4076
▁experiment	-4077
▁traditional	-4078
▁32	-4079
▁ir	-4080
ahoo	-4081
▁Way	-4082
▁lay	-4083
▁mis	-4084
▁pil	-4085
▁veh	-4086
▁Fore	-4087
▁Hall	-4088
▁dead	-4089
▁pric	-4090
▁tech	-4091
Script	-4092
▁Carol	-4093
▁focus	-4094
▁shoes	-4095
▁Victor	-4096
▁astron	-4097
▁streng	-4098
▁changes	-4099
▁discuss	-4100
▁fiction	-4101
▁protein	-4102
▁replace	-4103
▁unknown	-4104
▁significance	-4105
Is	-4106
▁[	-4107
▁Im	-4108
▁Uk	-4109
▁Bob	-4110
▁Dub	-4111
▁Ver	-4112
▁Web	-4113
igned	-4114
night	-4115
oston	-4116
ously	-4117
▁flav	-4118
▁room	-4119
▁trip	-4120
▁cents	-4121
▁route	-4122
isation	-4123
▁abroad	-4124
▁attend	-4125
▁campus	-4126
▁demand	-4127
▁invent	-4128
▁planet	-4129
▁spirit	-4130
▁Thrones	-4131
▁limited	-4132
▁measure	-4133
▁aircraft	-4134
▁document	-4135
▁Melbourne	-4136
▁procedure	-4137
ken	-4138
▁GO	-4139
1000	-4140
ocol	-4141
▁Ari	-4142
▁Art	-4143
▁Emp	-4144
▁Mur	-4145
▁Nik	-4146
▁arr	-4147
▁esc	-4148
aring	-4149
ength	-4150
ients	-4151
▁Arch	-4152
▁Cons	-4153
▁Cont	-4154
▁dipl	-4155
▁flag	-4156
▁myth	-4157
▁zone	-4158
icular	-4159
piracy	-4160
▁arriv	-4161
▁match	-4162
▁camera	-4163
▁centre	-4164
▁conflic	-4165
▁quarter	-4166
▁visited	-4167
▁cheapest	-4168
▁drinking	-4169
▁incident	-4170
▁location	-4171
▁multiple	-4172
▁affordable	-4173
za	-4174
▁eg	-4175
▁ok	-4176
chat	-4177
hers	-4178
writ	-4179
▁Cal	-4180
▁tor	-4181
arian	-4182
ishop	-4183
▁Bank	-4184
▁craz	-4185
▁poet	-4186
▁bored	-4187
▁means	-4188
▁stage	-4189
▁voice	-4190
ologist	-4191
▁Turkey	-4192
▁element	-4193
▁watched	-4194
▁younger	-4195
▁operating	-4196
▁attractive	-4197
▁themselves	-4198
lv	-4199
rm	-4200
ami	-4201
asc	-4202
▁rs	-4203
cean	-4204
▁Aut	-4205
▁McC	-4206
▁rot	-4207
ansas	-4208
▁Area	-4209
▁Army	-4210
▁Rock	-4211
▁Supp	-4212
▁cats	-4213
▁coup	-4214
▁loan	-4215
▁reach	-4216
▁twice	-4217
▁Albert	-4218
▁recogn	-4219
▁spokes	-4220
▁funding	-4221
▁message	-4222
▁direction	-4223
▁originally	-4224
▁television	-4225
▁conversation	-4226
In	-4227
TM	-4228
atr	-4229
che	-4230
use	-4231
▁Av	-4232
▁CS	-4233
ador	-4234
▁bud	-4235
ights	-4236
ooper	-4237
raham	-4238
▁Carl	-4239
▁neut	-4240
▁rain	-4241
▁shut	-4242
▁Super	-4243
▁tried	-4244
▁branch	-4245
▁figure	-4246
▁airport	-4247
▁analyst	-4248
▁challen	-4249
▁convert	-4250
▁quantum	-4251
▁accident	-4252
▁generally	-4253
▁northwest	-4254
▁resolution	-4255
▁entrepreneur	-4256
FL	-4257
da	-4258
phen	-4259
roat	-4260
ties	-4261
▁181	-4262
▁Ali	-4263
▁Dut	-4264
▁Jul	-4265
▁Off	-4266
▁dro	-4267
▁gun	-4268
▁sen	-4269
▁swe	-4270
▁Sher	-4271
enture	-4272
isgarh	-4273
uesday	-4274
▁Stock	-4275
▁adult	-4276
▁argum	-4277
▁shoot	-4278
▁Church	-4279
▁batter	-4280
▁phones	-4281
▁attacks	-4282
▁destroy	-4283
▁dollars	-4284
▁feature	-4285
▁activity	-4286
▁continue	-4287
▁selected	-4288
▁depressed	-4289
▁economics	-4290
▁overrated	-4291
▁politician	-4292
▁performance	-4293
rs	-4294
Jet	-4295
vin	-4296
▁AC	-4297
▁UN	-4298
aker	-4299
ales	-4300
▁Fil	-4301
▁Mem	-4302
▁RBI	-4303
▁Two	-4304
▁vot	-4305
ademy	-4306
apers	-4307
gical	-4308
▁Chen	-4309
▁Salt	-4310
▁nice	-4311
▁First	-4312
▁absol	-4313
▁anger	-4314
▁Boston	-4315
▁Chhatt	-4316
▁oldest	-4317
▁Johnson	-4318
▁Kashmir	-4319
▁Science	-4320
▁Tuesday	-4321
▁consist	-4322
▁devices	-4323
▁gravity	-4324
▁however	-4325
▁initial	-4326
▁liberal	-4327
▁studied	-4328
▁Catholic	-4329
▁surgical	-4330
▁thoughts	-4331
▁situation	-4332
▁Chhattisgarh	-4333
▁similarities	-4334
▁’	-4335
ran	-4336
▁AI	-4337
▁Ok	-4338
▁hy	-4339
aces	-4340
pite	-4341
wing	-4342
émon	-4343
▁GRE	-4344
▁etc	-4345
iding	-4346
orter	-4347
▁virt	-4348
▁Inter	-4349
▁meant	-4350
▁older	-4351
▁piano	-4352
▁skill	-4353
itation	-4354
▁issues	-4355
▁trying	-4356
ribution	-4357
▁conduct	-4358
▁editing	-4359
▁pimples	-4360
▁advanced	-4361
▁expensive	-4362
▁JavaScript	-4363
akh	-4364
ety	-4365
iny	-4366
nai	-4367
ris	-4368
rix	-4369
tee	-4370
2016	-4371
▁Day	-4372
▁eld	-4373
▁mur	-4374
ively	-4375
▁Navy	-4376
▁anti	-4377
▁mole	-4378
▁path	-4379
okemon	-4380
▁Chris	-4381
▁accur	-4382
▁legit	-4383
▁plane	-4384
ception	-4385
▁Joseph	-4386
▁muscle	-4387
▁threat	-4388
▁unique	-4389
▁further	-4390
▁results	-4391
▁section	-4392
▁affected	-4393
▁includes	-4394
▁involved	-4395
▁startups	-4396
▁discovered	-4397
▁significant	-4398
ev	-4399
▁Ak	-4400
bits	-4401
edia	-4402
icon	-4403
olit	-4404
sylv	-4405
vard	-4406
ying	-4407
▁Ann	-4408
▁Atl	-4409
▁Bul	-4410
▁Jay	-4411
▁Jud	-4412
▁Kar	-4413
▁Sat	-4414
▁tur	-4415
inger	-4416
▁Wall	-4417
▁bomb	-4418
▁liqu	-4419
▁wild	-4420
opping	-4421
urance	-4422
▁Bible	-4423
▁Brook	-4424
▁extra	-4425
▁loved	-4426
▁stars	-4427
▁aliens	-4428
▁fourth	-4429
sylvania	-4430
▁Stephen	-4431
▁blowing	-4432
▁mistake	-4433
▁obsessed	-4434
▁introvert	-4435
▁technical	-4436
▁Pennsylvania	-4437
▁Presidential	-4438
oz	-4439
▁MB	-4440
gent	-4441
opal	-4442
▁Bat	-4443
▁Dar	-4444
▁Ill	-4445
▁Luc	-4446
icted	-4447
▁1992	-4448
▁Note	-4449
▁earl	-4450
▁unit	-4451
icated	-4452
▁Georg	-4453
▁Jimmy	-4454
▁Other	-4455
▁Quick	-4456
▁blogs	-4457
▁chief	-4458
▁loose	-4459
▁whose	-4460
▁comedy	-4461
▁critic	-4462
▁tricks	-4463
▁virgin	-4464
▁Pokémon	-4465
▁Twitter	-4466
▁pronunc	-4467
▁Scotland	-4468
▁feelings	-4469
▁confident	-4470
▁evolution	-4471
▁religious	-4472
▁conspiracy	-4473
▁Engineering	-4474
AN	-4475
tr	-4476
▁+	-4477
ano	-4478
anz	-4479
bra	-4480
hib	-4481
▁Ca	-4482
▁Sn	-4483
anes	-4484
bury	-4485
irus	-4486
mond	-4487
room	-4488
▁Bus	-4489
▁Ell	-4490
▁Law	-4491
▁Rio	-4492
▁Top	-4493
▁Tri	-4494
▁box	-4495
▁kid	-4496
▁tar	-4497
ednes	-4498
enced	-4499
inate	-4500
stein	-4501
▁Mars	-4502
▁Mike	-4503
▁baby	-4504
▁bond	-4505
▁Music	-4506
▁Yahoo	-4507
▁cases	-4508
▁Empire	-4509
▁buried	-4510
▁colors	-4511
▁disapp	-4512
▁settle	-4513
ednesday	-4514
▁climate	-4515
▁comment	-4516
▁sources	-4517
▁painting	-4518
▁scariest	-4519
▁Francisco	-4520
▁environment	-4521
▁x	-4522
ady	-4523
wal	-4524
▁64	-4525
nder	-4526
▁180	-4527
▁Dis	-4528
▁ice	-4529
▁syn	-4530
▁ult	-4531
allel	-4532
iling	-4533
urban	-4534
where	-4535
▁Born	-4536
▁Stan	-4537
▁Viet	-4538
▁boys	-4539
▁fell	-4540
▁seat	-4541
▁sens	-4542
▁wedd	-4543
orters	-4544
porary	-4545
▁Lewis	-4546
▁cover	-4547
▁freel	-4548
▁nomin	-4549
▁Sunday	-4550
▁budget	-4551
▁overall	-4552
▁programs	-4553
▁regional	-4554
▁resident	-4555
▁newspaper	-4556
▁discontinu	-4557
▁competitive	-4558
▁characteristics	-4559
gl	-4560
the	-4561
▁PS	-4562
gypt	-4563
like	-4564
odia	-4565
▁Bab	-4566
▁ric	-4567
▁1999	-4568
▁GMAT	-4569
▁driv	-4570
▁hang	-4571
▁ment	-4572
ashion	-4573
ground	-4574
▁Egypt	-4575
▁Jones	-4576
▁Latin	-4577
▁glass	-4578
▁habit	-4579
▁motor	-4580
▁touch	-4581
▁Office	-4582
▁agency	-4583
▁confir	-4584
▁county	-4585
▁grades	-4586
▁linear	-4587
▁python	-4588
▁speaker	-4589
▁hospital	-4590
▁sleeping	-4591
▁Wednesday	-4592
▁engineers	-4593
▁algorithms	-4594
'?	-4595
box	-4596
bre	-4597
eum	-4598
rel	-4599
yan	-4600
▁NY	-4601
abul	-4602
char	-4603
ends	-4604
ysis	-4605
▁Alb	-4606
▁Spe	-4607
▁try	-4608
Books	-4609
▁Bern	-4610
▁proc	-4611
▁Asian	-4612
▁Since	-4613
▁Tamil	-4614
▁scrap	-4615
▁solar	-4616
▁detect	-4617
▁qualif	-4618
▁replac	-4619
▁sports	-4620
▁troops	-4621
▁Railway	-4622
▁elements	-4623
▁graduate	-4624
▁proposed	-4625
▁designing	-4626
▁pregnancy	-4627
▁secondary	-4628
▁historical	-4629
▁literature	-4630
▁pronunciation	-4631
CE	-4632
The	-4633
ova	-4634
▁Ut	-4635
igan	-4636
ords	-4637
wide	-4638
▁Rog	-4639
▁Wat	-4640
▁lif	-4641
▁tea	-4642
aries	-4643
based	-4644
▁Fred	-4645
▁bike	-4646
▁goog	-4647
▁stra	-4648
▁wide	-4649
▁belie	-4650
ambodia	-4651
▁define	-4652
▁immedi	-4653
▁supply	-4654
▁wanted	-4655
▁yellow	-4656
▁Justice	-4657
▁ancient	-4658
▁brought	-4659
▁failure	-4660
▁testing	-4661
▁thought	-4662
▁tourist	-4663
▁addition	-4664
▁conflict	-4665
▁operated	-4666
▁parallel	-4667
▁executive	-4668
▁instagram	-4669
▁structures	-4670
▁electricity	-4671
▁immediately	-4672
AM	-4673
FA	-4674
hu	-4675
li	-4676
bon	-4677
ias	-4678
itt	-4679
kin	-4680
mat	-4681
▁fo	-4682
edom	-4683
▁Ash	-4684
▁Bet	-4685
▁Dan	-4686
▁Rad	-4687
▁Ram	-4688
▁Rel	-4689
▁Som	-4690
▁cab	-4691
▁fit	-4692
▁lie	-4693
shire	-4694
▁1980	-4695
▁Gand	-4696
▁Nick	-4697
▁Wars	-4698
▁bass	-4699
▁gave	-4700
▁hous	-4701
▁moth	-4702
▁rare	-4703
▁ship	-4704
▁tast	-4705
▁zero	-4706
▁Beach	-4707
▁Dhoni	-4708
▁Liber	-4709
▁famil	-4710
▁files	-4711
▁loves	-4712
▁Commun	-4713
▁device	-4714
▁length	-4715
▁mutual	-4716
▁resist	-4717
ographic	-4718
▁disease	-4719
▁instrum	-4720
▁invented	-4721
▁provider	-4722
▁Department	-4723
▁underrated	-4724
▁reservation	-4725
oos	-4726
▁DC	-4727
hens	-4728
kins	-4729
▁Jun	-4730
▁gal	-4731
board	-4732
embly	-4733
itzer	-4734
wards	-4735
▁Long	-4736
▁Wood	-4737
▁adop	-4738
▁rule	-4739
apchat	-4740
ighter	-4741
▁Chand	-4742
▁brown	-4743
▁essay	-4744
▁joint	-4745
▁occur	-4746
▁plays	-4747
▁raise	-4748
▁scale	-4749
▁truly	-4750
eration	-4751
▁Portug	-4752
▁artist	-4753
▁asking	-4754
▁breast	-4755
▁mostly	-4756
▁regard	-4757
▁unlock	-4758
commerce	-4759
▁Jackson	-4760
▁Olympic	-4761
▁english	-4762
▁fashion	-4763
▁meeting	-4764
▁reached	-4765
▁respect	-4766
▁channels	-4767
▁contrast	-4768
▁passport	-4769
▁planning	-4770
▁definition	-4771
▁philosophy	-4772
▁experiences	-4773
▁relationships	-4774
10	-4775
ga	-4776
inn	-4777
ply	-4778
▁Ev	-4779
▁Iv	-4780
▁Kr	-4781
arat	-4782
▁Act	-4783
▁NAS	-4784
▁Ray	-4785
raine	-4786
rence	-4787
▁bord	-4788
▁hurt	-4789
▁root	-4790
ancing	-4791
▁Dutch	-4792
▁Steve	-4793
▁eight	-4794
▁innov	-4795
▁pilot	-4796
▁Andrew	-4797
▁Martin	-4798
▁actors	-4799
▁anonym	-4800
▁conver	-4801
▁launch	-4802
▁rights	-4803
▁safety	-4804
▁spouse	-4805
▁upload	-4806
pecially	-4807
▁battery	-4808
▁conserv	-4809
▁decided	-4810
▁maximum	-4811
▁connected	-4812
▁QuickBooks	-4813
▁particular	-4814
60	-4815
ees	-4816
▁2?	-4817
▁Gh	-4818
aint	-4819
raid	-4820
rant	-4821
▁Inf	-4822
▁Sov	-4823
▁fle	-4824
▁mir	-4825
lands	-4826
▁Budd	-4827
▁Camp	-4828
▁Dire	-4829
▁Kong	-4830
▁coun	-4831
▁dram	-4832
▁repe	-4833
▁scen	-4834
▁tank	-4835
▁₹500	-4836
asters	-4837
▁Bangl	-4838
▁Hindu	-4839
▁cards	-4840
▁sense	-4841
▁seven	-4842
▁therm	-4843
▁Secret	-4844
▁Sweden	-4845
▁church	-4846
▁mental	-4847
▁consult	-4848
▁musical	-4849
▁weapons	-4850
▁weather	-4851
▁wedding	-4852
▁friendly	-4853
▁provides	-4854
▁shopping	-4855
▁attracted	-4856
▁insurance	-4857
▁demonetize	-4858
amm	-4859
bur	-4860
isf	-4861
▁7?	-4862
▁Bu	-4863
▁Gi	-4864
▁ox	-4865
amic	-4866
aven	-4867
inet	-4868
vere	-4869
▁...	-4870
▁Jes	-4871
▁Nob	-4872
▁Pre	-4873
▁saw	-4874
icate	-4875
usion	-4876
▁alle	-4877
▁bird	-4878
▁cous	-4879
▁libr	-4880
ricult	-4881
▁Brown	-4882
▁Civil	-4883
▁Singh	-4884
▁colon	-4885
▁prove	-4886
▁spent	-4887
▁People	-4888
▁Temple	-4889
▁either	-4890
▁myster	-4891
▁prices	-4892
▁regist	-4893
▁sector	-4894
▁Kingdom	-4895
▁produce	-4896
▁stopped	-4897
▁Northern	-4898
▁attended	-4899
▁officers	-4900
▁procrast	-4901
▁Saltwater	-4902
▁expanding	-4903
▁Democratic	-4904
▁operations	-4905
▁intelligent	-4906
.8	-4907
pos	-4908
win	-4909
▁1,	-4910
▁Ve	-4911
ault	-4912
▁Dev	-4913
▁GST	-4914
▁Jac	-4915
▁Ken	-4916
▁Pen	-4917
▁Rev	-4918
obile	-4919
▁Cast	-4920
▁MBBS	-4921
▁gate	-4922
ements	-4923
▁Anton	-4924
▁behav	-4925
▁catch	-4926
▁teeth	-4927
▁trump	-4928
agement	-4929
▁Soviet	-4930
▁forces	-4931
▁integr	-4932
▁satisf	-4933
▁strike	-4934
▁wealth	-4935
▁factory	-4936
▁Columbia	-4937
▁interact	-4938
▁recently	-4939
▁responsible	-4940
II	-4941
aka	-4942
osc	-4943
unj	-4944
uty	-4945
▁CD	-4946
▁ID	-4947
▁Lu	-4948
0000	-4949
etts	-4950
real	-4951
tech	-4952
uana	-4953
well	-4954
▁184	-4955
▁PhD	-4956
▁Tai	-4957
▁ago	-4958
▁bac	-4959
▁uns	-4960
andom	-4961
ersey	-4962
iture	-4963
▁1970	-4964
▁Hong	-4965
▁gets	-4966
▁gram	-4967
▁knew	-4968
▁save	-4969
▁seem	-4970
▁suff	-4971
▁upgr	-4972
▁volt	-4973
arciss	-4974
coming	-4975
ursday	-4976
▁magaz	-4977
▁rates	-4978
▁recru	-4979
▁Malays	-4980
▁afraid	-4981
▁cutoff	-4982
▁league	-4983
▁taller	-4984
poration	-4985
▁Pokemon	-4986
▁Service	-4987
▁balance	-4988
▁express	-4989
▁impress	-4990
▁longest	-4991
▁fighting	-4992
▁teenager	-4993
▁associated	-4994
▁Championship	-4995
25	-4996
EET	-4997
elt	-4998
met	-4999
unn	-5000
▁Az	-5001
▁Ha	-5002
▁Ka	-5003
▁OS	-5004
ands	-5005
aphy	-5006
cies	-5007
oker	-5008
▁Any	-5009
▁Arn	-5010
▁Pac	-5011
▁Ros	-5012
▁Sur	-5013
▁Ten	-5014
▁Wik	-5015
▁unf	-5016
▁wid	-5017
gradu	-5018
ograp	-5019
verse	-5020
▁2018	-5021
▁Card	-5022
▁IBPS	-5023
▁Sout	-5024
▁goal	-5025
▁runs	-5026
▁sure	-5027
ishing	-5028
▁Charl	-5029
▁agent	-5030
▁banks	-5031
▁chain	-5032
▁clust	-5033
▁enter	-5034
▁piece	-5035
ropolit	-5036
▁Middle	-5037
▁compar	-5038
▁events	-5039
▁habits	-5040
▁racist	-5041
▁repair	-5042
▁territ	-5043
▁Chennai	-5044
▁reality	-5045
▁Province	-5046
▁comments	-5047
▁discover	-5048
▁mistakes	-5049
▁suddenly	-5050
▁astronaut	-5051
▁terrorism	-5052
▁graduation	-5053
▁billionaire	-5054
DI	-5055
TS	-5056
han	-5057
put	-5058
▁70	-5059
▁Of	-5060
▁Op	-5061
ests	-5062
imal	-5063
ingu	-5064
mers	-5065
▁Den	-5066
▁Fer	-5067
▁Haw	-5068
▁Leg	-5069
▁Pan	-5070
▁dra	-5071
▁eff	-5072
achus	-5073
iders	-5074
prise	-5075
stant	-5076
▁Beng	-5077
▁Word	-5078
▁goes	-5079
▁walk	-5080
hester	-5081
▁judge	-5082
▁scene	-5083
▁withd	-5084
ologies	-5085
▁Center	-5086
▁domain	-5087
▁marine	-5088
▁nature	-5089
▁paying	-5090
▁simply	-5091
▁captain	-5092
▁charges	-5093
▁classes	-5094
▁players	-5095
▁scholar	-5096
achusetts	-5097
▁Thursday	-5098
▁although	-5099
▁division	-5100
▁emotions	-5101
▁reliable	-5102
▁straight	-5103
▁supported	-5104
▁terrorist	-5105
▁developing	-5106
▁Massachusetts	-5107
EL	-5108
ua	-5109
++?	-5110
eds	-5111
irt	-5112
▁DJ	-5113
▁Er	-5114
iler	-5115
okes	-5116
star	-5117
▁Int	-5118
▁Pay	-5119
▁Vis	-5120
▁boo	-5121
▁inj	-5122
▁sav	-5123
angle	-5124
enger	-5125
tario	-5126
▁Kenn	-5127
▁NEET	-5128
▁Rail	-5129
▁nose	-5130
ipedia	-5131
ivirus	-5132
ounded	-5133
▁(2016	-5134
▁heavy	-5135
▁occup	-5136
▁rural	-5137
▁trade	-5138
▁Bridge	-5139
▁Instit	-5140
▁battle	-5141
▁highly	-5142
▁pursue	-5143
▁taught	-5144
▁winter	-5145
▁Ontario	-5146
▁Ukraine	-5147
▁Vietnam	-5148
▁denomin	-5149
▁changing	-5150
▁citizens	-5151
▁mountain	-5152
▁Alexander	-5153
▁scientist	-5154
▁especially	-5155
kes	-5156
oda	-5157
▁$1	-5158
▁AP	-5159
aded	-5160
▁ded	-5161
▁hol	-5162
▁pun	-5163
▁rat	-5164
erman	-5165
iques	-5166
light	-5167
▁Shar	-5168
▁kiss	-5169
▁prec	-5170
arters	-5171
ending	-5172
isters	-5173
▁Enter	-5174
▁Jesus	-5175
▁annoy	-5176
▁prior	-5177
▁spons	-5178
abulary	-5179
▁System	-5180
▁belong	-5181
▁couple	-5182
▁artists	-5183
▁leading	-5184
▁narciss	-5185
▁neutral	-5186
▁selling	-5187
▁customer	-5188
▁majority	-5189
▁provided	-5190
▁reaction	-5191
▁situated	-5192
▁strength	-5193
▁Wikipedia	-5194
▁northeast	-5195
▁businesses	-5196
▁properties	-5197
▁psychopath	-5198
▁probability	-5199
ja	-5200
ado	-5201
bol	-5202
ker	-5203
▁35	-5204
▁Po	-5205
atre	-5206
ifth	-5207
rosc	-5208
▁Die	-5209
▁wis	-5210
▁Saud	-5211
▁harm	-5212
▁huge	-5213
▁jail	-5214
▁king	-5215
▁poll	-5216
▁tree	-5217
ansion	-5218
antage	-5219
arning	-5220
inated	-5221
isions	-5222
porate	-5223
ribute	-5224
▁Irish	-5225
▁Power	-5226
▁Swiss	-5227
▁award	-5228
▁basis	-5229
▁needs	-5230
▁shall	-5231
duction	-5232
▁forced	-5233
▁lesser	-5234
▁random	-5235
▁reject	-5236
▁senior	-5237
▁Switzer	-5238
▁equival	-5239
▁methods	-5240
▁records	-5241
▁voltage	-5242
lications	-5243
▁articles	-5244
▁chairman	-5245
▁motivate	-5246
▁neighbor	-5247
▁quickest	-5248
▁employees	-5249
▁implement	-5250
▁permanent	-5251
▁components	-5252
▁department	-5253
▁Switzerland	-5254
▁introducing	-5255
va	-5256
hab	-5257
idi	-5258
▁Du	-5259
▁Jo	-5260
▁Ly	-5261
bian	-5262
gies	-5263
hire	-5264
▁Cur	-5265
▁Mir	-5266
▁Pit	-5267
▁cos	-5268
▁tum	-5269
0000?	-5270
athan	-5271
othes	-5272
tical	-5273
ulate	-5274
▁Tech	-5275
▁cope	-5276
▁fair	-5277
▁lack	-5278
▁Syria	-5279
▁Under	-5280
▁crime	-5281
▁foods	-5282
▁Senate	-5283
▁arrang	-5284
▁extrem	-5285
▁fields	-5286
▁franch	-5287
▁parent	-5288
graduate	-5289
▁African	-5290
▁defined	-5291
▁divided	-5292
▁lessons	-5293
▁richest	-5294
▁Michigan	-5295
▁continued	-5296
▁southeast	-5297
▁collection	-5298
▁generation	-5299
▁vocabulary	-5300
▁alternative	-5301
▁championship	-5302
▁distribution	-5303
awa	-5304
war	-5305
▁33	-5306
born	-5307
ened	-5308
rete	-5309
uman	-5310
▁Cle	-5311
▁Cub	-5312
▁Ham	-5313
▁Tay	-5314
anted	-5315
burgh	-5316
force	-5317
ittle	-5318
▁Adam	-5319
▁Barb	-5320
▁Shah	-5321
▁core	-5322
▁fill	-5323
▁lock	-5324
▁okay	-5325
▁pool	-5326
▁rose	-5327
▁wood	-5328
▁adapt	-5329
▁domin	-5330
▁stuff	-5331
▁Argent	-5332
▁Prince	-5333
▁Second	-5334
▁medals	-5335
▁observ	-5336
▁offers	-5337
▁plants	-5338
▁resume	-5339
▁stream	-5340
▁Manaphy	-5341
▁Mexican	-5342
▁Pacific	-5343
▁edition	-5344
▁knowing	-5345
▁minutes	-5346
▁surface	-5347
itational	-5348
ropolitan	-5349
▁constant	-5350
▁finished	-5351
▁opposite	-5352
▁remained	-5353
▁contribut	-5354
▁essential	-5355
▁increased	-5356
▁influence	-5357
▁restaurant	-5358
▁authorities	-5359
▁masturbating	-5360
duc	-5361
ima	-5362
pan	-5363
rac	-5364
top	-5365
▁45	-5366
▁kg	-5367
aked	-5368
aser	-5369
cest	-5370
gery	-5371
illa	-5372
vest	-5373
▁Cup	-5374
▁Def	-5375
▁Hel	-5376
▁III	-5377
▁Naz	-5378
▁Nic	-5379
▁Sab	-5380
▁Tre	-5381
▁Ven	-5382
▁ful	-5383
inder	-5384
orrow	-5385
▁Asia	-5386
▁Test	-5387
▁acid	-5388
▁emer	-5389
▁susp	-5390
▁tatt	-5391
▁wine	-5392
ijuana	-5393
▁caste	-5394
▁ended	-5395
▁gmail	-5396
▁smell	-5397
▁sport	-5398
imately	-5399
▁Friend	-5400
▁cousin	-5401
▁decide	-5402
▁legisl	-5403
▁motion	-5404
▁raised	-5405
▁spread	-5406
▁strang	-5407
▁Pradesh	-5408
▁Support	-5409
▁command	-5410
▁details	-5411
▁settled	-5412
▁equation	-5413
▁families	-5414
▁governor	-5415
▁theories	-5416
▁democracy	-5417
▁spiritual	-5418
▁competition	-5419
TML	-5420
esh	-5421
▁CB	-5422
▁Es	-5423
▁Sk	-5424
aska	-5425
iana	-5426
pher	-5427
▁Che	-5428
▁Don	-5429
▁Fre	-5430
▁Pri	-5431
▁Squ	-5432
▁emp	-5433
▁ign	-5434
gebra	-5435
inois	-5436
print	-5437
▁HTML	-5438
▁Line	-5439
▁Uber	-5440
▁cate	-5441
▁wing	-5442
rative	-5443
▁Santa	-5444
▁broke	-5445
▁cycle	-5446
▁displ	-5447
▁fresh	-5448
▁goals	-5449
▁metal	-5450
▁molec	-5451
▁scars	-5452
▁virus	-5453
estival	-5454
▁Disney	-5455
▁Kansas	-5456
▁factor	-5457
▁interp	-5458
▁server	-5459
▁serves	-5460
▁theore	-5461
cription	-5462
▁Eastern	-5463
▁Indones	-5464
▁android	-5465
▁chewing	-5466
▁greater	-5467
▁hardest	-5468
▁hosting	-5469
▁passion	-5470
▁remains	-5471
▁restore	-5472
▁virtual	-5473
▁Mountain	-5474
▁cambodia	-5475
▁clusters	-5476
▁controll	-5477
▁identify	-5478
▁printing	-5479
▁teachers	-5480
▁franchise	-5481
▁selection	-5482
▁transport	-5483
▁calculated	-5484
▁industrial	-5485
▁institutes	-5486
▁psychology	-5487
▁electronics	-5488
DS	-5489
HP	-5490
asp	-5491
iab	-5492
mic	-5493
oop	-5494
ule	-5495
▁AA	-5496
cles	-5497
list	-5498
omic	-5499
opes	-5500
rief	-5501
wart	-5502
▁Bow	-5503
▁Bru	-5504
▁FBI	-5505
▁Mot	-5506
▁Ple	-5507
edies	-5508
rayed	-5509
▁1945	-5510
▁Good	-5511
▁Lind	-5512
▁Play	-5513
▁Turk	-5514
▁abol	-5515
▁crim	-5516
▁lies	-5517
▁reve	-5518
ertain	-5519
ession	-5520
▁Hindi	-5521
▁While	-5522
▁affil	-5523
▁curve	-5524
▁gives	-5525
▁holes	-5526
▁ideal	-5527
▁memor	-5528
▁micro	-5529
▁biting	-5530
▁cannot	-5531
▁flying	-5532
▁handle	-5533
▁status	-5534
▁switch	-5535
▁arrived	-5536
▁charged	-5537
▁contain	-5538
▁doctors	-5539
▁mention	-5540
▁witness	-5541
▁Carolina	-5542
▁annoying	-5543
▁directly	-5544
▁humanity	-5545
▁magnetic	-5546
▁spokesman	-5547
▁Bangladesh	-5548
▁additional	-5549
▁Corporation	-5550
▁educational	-5551
▁efficiently	-5552
MS	-5553
US	-5554
ih	-5555
uz	-5556
wa	-5557
20?	-5558
agh	-5559
xit	-5560
▁Ja	-5561
agle	-5562
anna	-5563
elly	-5564
▁Amb	-5565
▁Bas	-5566
▁Bol	-5567
▁Eve	-5568
▁Rah	-5569
▁Sol	-5570
▁Ter	-5571
▁din	-5572
▁hyd	-5573
berry	-5574
books	-5575
▁Jean	-5576
▁NASA	-5577
▁Writ	-5578
▁chat	-5579
▁corn	-5580
▁desk	-5581
▁furn	-5582
▁lect	-5583
▁ones	-5584
▁poem	-5585
▁prem	-5586
▁risk	-5587
ailand	-5588
▁Child	-5589
▁fifth	-5590
▁potty	-5591
▁taffy	-5592
▁unlim	-5593
▁urban	-5594
osexual	-5595
▁Gandhi	-5596
▁bridge	-5597
▁itself	-5598
emporary	-5599
gressive	-5600
▁Another	-5601
▁Federal	-5602
▁Islands	-5603
▁atheist	-5604
▁collide	-5605
▁follows	-5606
▁painful	-5607
▁substit	-5608
▁Illinois	-5609
▁Thailand	-5610
▁approved	-5611
▁Pakistani	-5612
▁destroyed	-5613
▁expansion	-5614
▁unlimited	-5615
▁conditions	-5616
▁distributed	-5617
▁millionaire	-5618
▁organization	-5619
▁administration	-5620
7?	-5621
TC	-5622
bi	-5623
aid	-5624
ald	-5625
coh	-5626
mad	-5627
str	-5628
usk	-5629
▁55	-5630
▁Mo	-5631
▁Ox	-5632
idal	-5633
omer	-5634
tics	-5635
town	-5636
▁hyp	-5637
▁pul	-5638
▁suc	-5639
orney	-5640
▁1968	-5641
▁Also	-5642
▁Bell	-5643
▁Fall	-5644
▁Gary	-5645
▁Post	-5646
▁conv	-5647
▁evil	-5648
▁firm	-5649
▁milk	-5650
▁ripp	-5651
▁trib	-5652
emeter	-5653
ensity	-5654
▁Diego	-5655
▁drugs	-5656
▁magic	-5657
▁pharm	-5658
▁robot	-5659
ensions	-5660
istical	-5661
▁Batman	-5662
▁Bengal	-5663
▁Jersey	-5664
▁Little	-5665
▁Market	-5666
▁Spring	-5667
▁deeply	-5668
▁galaxy	-5669
▁infect	-5670
▁retail	-5671
▁display	-5672
▁graphic	-5673
▁logical	-5674
▁opening	-5675
▁predict	-5676
▁princip	-5677
▁treated	-5678
▁victory	-5679
▁Computer	-5680
▁Exchange	-5681
▁analysis	-5682
▁magazine	-5683
▁register	-5684
▁separate	-5685
▁Institute	-5686
▁arguments	-5687
▁celebrity	-5688
▁frequency	-5689
▁presented	-5690
▁combination	-5691
1?	-5692
2?	-5693
IC	-5694
TA	-5695
nee	-5696
set	-5697
▁46	-5698
▁od	-5699
inct	-5700
ipur	-5701
izes	-5702
life	-5703
rome	-5704
ucky	-5705
▁Arm	-5706
▁Gil	-5707
▁SBI	-5708
▁TCS	-5709
▁aer	-5710
pherd	-5711
worth	-5712
▁Jeff	-5713
▁Kent	-5714
▁Most	-5715
▁Plus	-5716
▁bask	-5717
▁diss	-5718
▁hero	-5719
▁meat	-5720
▁unus	-5721
▁Armen	-5722
▁alcoh	-5723
▁helps	-5724
▁jokes	-5725
ocolate	-5726
▁Taylor	-5727
▁acting	-5728
▁damage	-5729
▁driver	-5730
▁mainly	-5731
▁placed	-5732
▁quotes	-5733
▁secure	-5734
▁Academy	-5735
▁Supreme	-5736
▁banking	-5737
▁dropped	-5738
▁laptops	-5739
▁mission	-5740
▁talking	-5741
▁Security	-5742
▁database	-5743
▁internal	-5744
▁Democrats	-5745
▁beginning	-5746
▁classical	-5747
▁previously	-5748
▁downloading	-5749
▁implications	-5750
▁inspirational	-5751
MA	-5752
PA	-5753
ni	-5754
azz	-5755
ela	-5756
jri	-5757
ura	-5758
vis	-5759
▁90	-5760
asht	-5761
iant	-5762
illy	-5763
olve	-5764
onic	-5765
uber	-5766
umin	-5767
▁Bra	-5768
▁Hun	-5769
▁Max	-5770
▁Rub	-5771
▁Win	-5772
▁har	-5773
▁mos	-5774
▁sad	-5775
▁sem	-5776
odies	-5777
reens	-5778
▁1996	-5779
▁Band	-5780
▁Love	-5781
▁Phys	-5782
▁Prof	-5783
▁Tenn	-5784
▁That	-5785
▁cars	-5786
▁dumb	-5787
▁heat	-5788
▁kept	-5789
▁narr	-5790
▁wait	-5791
jriwal	-5792
uation	-5793
▁Buddh	-5794
▁Saudi	-5795
▁Trans	-5796
▁divor	-5797
▁mixed	-5798
▁numer	-5799
▁poker	-5800
▁recip	-5801
▁shown	-5802
▁veget	-5803
▁worse	-5804
irlines	-5805
▁Bhopal	-5806
▁broken	-5807
▁easier	-5808
▁headqu	-5809
▁please	-5810
▁retire	-5811
▁slight	-5812
izations	-5813
▁aspects	-5814
▁benefit	-5815
▁declare	-5816
▁markets	-5817
▁publish	-5818
▁request	-5819
▁succeed	-5820
▁relative	-5821
▁remedies	-5822
▁somebody	-5823
▁upcoming	-5824
▁Mountains	-5825
▁advantage	-5826
▁computers	-5827
▁electoral	-5828
▁furniture	-5829
▁southwest	-5830
▁background	-5831
▁supporters	-5832
▁throughout	-5833
▁Republicans	-5834
▁manufacture	-5835
▁photography	-5836
▁Constitution	-5837
CC	-5838
ye	-5839
rog	-5840
▁Ba	-5841
▁Os	-5842
▁SE	-5843
▁Ta	-5844
acle	-5845
anga	-5846
ardo	-5847
aval	-5848
oute	-5849
▁Cap	-5850
▁IBM	-5851
▁Now	-5852
▁Old	-5853
cious	-5854
estic	-5855
iform	-5856
uting	-5857
▁1967	-5858
▁1974	-5859
▁1989	-5860
▁1994	-5861
▁Belg	-5862
▁Club	-5863
▁drum	-5864
▁eggs	-5865
▁fant	-5866
▁ring	-5867
▁swim	-5868
▁vice	-5869
▁wire	-5870
▁Board	-5871
▁Grand	-5872
▁Ocean	-5873
▁Ridge	-5874
▁decor	-5875
▁faced	-5876
▁votes	-5877
▁₹1000	-5878
▁Health	-5879
▁Number	-5880
▁academ	-5881
▁affair	-5882
▁boring	-5883
▁circul	-5884
▁diplom	-5885
▁dollar	-5886
▁lonely	-5887
▁physic	-5888
▁powder	-5889
▁promin	-5890
▁accompl	-5891
▁anybody	-5892
▁article	-5893
▁fresher	-5894
▁ordered	-5895
▁removal	-5896
▁removed	-5897
▁surgery	-5898
▁Kejriwal	-5899
▁accepted	-5900
▁critical	-5901
▁declared	-5902
ifications	-5903
▁Secretary	-5904
▁agreement	-5905
▁childhood	-5906
▁worldwide	-5907
▁equivalent	-5908
▁influenced	-5909
▁networking	-5910
▁registered	-5911
▁restaurants	-5912
▁contemporary	-5913
▁procrastination	-5914
[/	-5915
ca	-5916
aji	-5917
lan	-5918
oca	-5919
enth	-5920
lied	-5921
resp	-5922
uits	-5923
▁Boy	-5924
▁Joe	-5925
▁Nat	-5926
house	-5927
ocese	-5928
ockey	-5929
otify	-5930
ronic	-5931
ropod	-5932
ropri	-5933
unjab	-5934
usive	-5935
▁Ball	-5936
▁Hart	-5937
▁Life	-5938
▁Pers	-5939
▁clin	-5940
▁elig	-5941
▁gast	-5942
▁moll	-5943
icious	-5944
ulated	-5945
umping	-5946
▁Water	-5947
▁calls	-5948
▁cream	-5949
▁exhib	-5950
▁owner	-5951
ificial	-5952
▁Avenue	-5953
▁Summer	-5954
▁merged	-5955
▁nearly	-5956
▁reveal	-5957
▁Harvard	-5958
▁Records	-5959
▁earlier	-5960
▁founder	-5961
▁license	-5962
▁vehicle	-5963
▁Malaysia	-5964
▁Shepherd	-5965
▁absolute	-5966
▁accurate	-5967
▁acquired	-5968
▁episodes	-5969
▁launched	-5970
▁movement	-5971
▁spending	-5972
▁exercises	-5973
▁happening	-5974
▁reactions	-5975
▁Technology	-5976
▁activities	-5977
▁basketball	-5978
▁connection	-5979
▁techniques	-5980
Cl	-5981
MC	-5982
SL	-5983
bal	-5984
isb	-5985
pet	-5986
rim	-5987
▁Ty	-5988
aret	-5989
eler	-5990
hold	-5991
onia	-5992
pson	-5993
pton	-5994
test	-5995
▁10?	-5996
▁Dou	-5997
▁IIM	-5998
▁Its	-5999
▁Ivy	-6000
▁Mid	-6001
▁dyn	-6002
▁tal	-6003
etime	-6004
owell	-6005
▁1963	-6006
▁1986	-6007
▁Fort	-6008
▁ISIS	-6009
▁Quor	-6010
▁Tele	-6011
▁boot	-6012
▁imag	-6013
▁soul	-6014
▁syll	-6015
ductor	-6016
▁Niger	-6017
▁blind	-6018
▁index	-6019
▁phase	-6020
▁takes	-6021
unction	-6022
▁expert	-6023
▁fluent	-6024
▁ground	-6025
▁lesson	-6026
▁liquid	-6027
▁listed	-6028
▁studio	-6029
▁submit	-6030
▁council	-6031
▁despite	-6032
▁freedom	-6033
▁offline	-6034
▁respond	-6035
▁trained	-6036
▁calories	-6037
▁consists	-6038
▁scripting	-6039
▁sociopath	-6040
▁inventions	-6041
▁parliament	-6042
▁construction	-6043
LA	-6044
ef	-6045
ito	-6046
mes	-6047
rad	-6048
▁36	-6049
▁Ah	-6050
athy	-6051
osis	-6052
uing	-6053
▁Bor	-6054
▁Cat	-6055
▁Fed	-6056
▁Fox	-6057
▁Jon	-6058
▁arm	-6059
▁mac	-6060
▁por	-6061
▁tex	-6062
gency	-6063
onder	-6064
right	-6065
urday	-6066
▁Book	-6067
▁Corn	-6068
▁Jane	-6069
▁Leon	-6070
▁Many	-6071
▁Marc	-6072
▁Mong	-6073
▁Tour	-6074
▁Walk	-6075
▁Youn	-6076
▁edit	-6077
▁fish	-6078
▁genu	-6079
▁iron	-6080
▁mart	-6081
▁synd	-6082
tained	-6083
weight	-6084
▁Games	-6085
▁boost	-6086
▁carry	-6087
▁categ	-6088
▁drone	-6089
▁mouth	-6090
▁occas	-6091
▁orgas	-6092
▁tells	-6093
▁tired	-6094
▁topic	-6095
▁Queens	-6096
▁button	-6097
▁illust	-6098
▁propos	-6099
▁volume	-6100
▁Georgia	-6101
▁concern	-6102
▁illness	-6103
▁serving	-6104
▁setting	-6105
▁tournam	-6106
▁typical	-6107
▁warming	-6108
▁Business	-6109
▁Saturday	-6110
▁Stanford	-6111
▁contains	-6112
▁craziest	-6113
▁criminal	-6114
▁extremely	-6115
▁gastropod	-6116
▁particles	-6117
▁Commission	-6118
▁officially	-6119
▁possibility	-6120
▁requirements	-6121
▁gravitational	-6122
12	-6123
99	-6124
IN	-6125
So	-6126
ić	-6127
zy	-6128
ika	-6129
iro	-6130
lyn	-6131
oln	-6132
▁Ra	-6133
▁Sa	-6134
brit	-6135
heim	-6136
iled	-6137
ilty	-6138
oned	-6139
onse	-6140
pper	-6141
▁McG	-6142
▁Put	-6143
▁Rod	-6144
▁Sri	-6145
aires	-6146
akers	-6147
outer	-6148
▁1960	-6149
▁1975	-6150
▁1979	-6151
▁Brig	-6152
▁Stat	-6153
▁mine	-6154
▁till	-6155
▁wind	-6156
othing	-6157
▁elder	-6158
▁estim	-6159
▁flows	-6160
▁proud	-6161
▁seats	-6162
▁taste	-6163
brities	-6164
▁Walter	-6165
▁caught	-6166
▁emails	-6167
▁format	-6168
▁images	-6169
▁issued	-6170
▁scenes	-6171
▁visual	-6172
▁Matthew	-6173
▁Swedish	-6174
▁clothes	-6175
▁masters	-6176
▁package	-6177
▁renamed	-6178
▁Governor	-6179
▁Victoria	-6180
▁agricult	-6181
▁broadcast	-6182
▁buildings	-6183
▁chocolate	-6184
▁reference	-6185
▁solutions	-6186
▁footballer	-6187
▁travelling	-6188
▁celebrities	-6189
▁communities	-6190
▁investigation	-6191
CR	-6192
Sc	-6193
do	-6194
een	-6195
rer	-6196
rig	-6197
sin	-6198
▁34	-6199
▁Bi	-6200
▁Cy	-6201
▁Hu	-6202
▁ut	-6203
▁vs	-6204
adel	-6205
amin	-6206
arry	-6207
bull	-6208
mont	-6209
rier	-6210
umar	-6211
▁Kap	-6212
▁Nar	-6213
▁SAP	-6214
▁Tal	-6215
▁Tod	-6216
▁amb	-6217
▁ble	-6218
▁cou	-6219
elect	-6220
ennis	-6221
secut	-6222
stone	-6223
▁1985	-6224
▁1991	-6225
▁Both	-6226
▁Dell	-6227
▁Earl	-6228
▁Mand	-6229
▁Prem	-6230
▁cere	-6231
▁farm	-6232
▁insp	-6233
▁mill	-6234
▁wash	-6235
▁Mains	-6236
▁Muham	-6237
▁Nobel	-6238
▁comic	-6239
▁frame	-6240
▁genre	-6241
▁shape	-6242
▁spots	-6243
▁trial	-6244
▁waste	-6245
emetery	-6246
respond	-6247
▁Berlin	-6248
▁Graham	-6249
▁Oxford	-6250
▁Polish	-6251
▁Taiwan	-6252
▁equity	-6253
▁failed	-6254
▁hacked	-6255
▁larger	-6256
▁models	-6257
▁powers	-6258
▁resign	-6259
▁superf	-6260
▁voting	-6261
▁Program	-6262
▁Turkish	-6263
▁anymore	-6264
▁circuit	-6265
▁driving	-6266
▁managed	-6267
▁painter	-6268
▁returns	-6269
▁unusual	-6270
▁strongly	-6271
▁ultimate	-6272
▁assistant	-6273
▁confirmed	-6274
▁corporate	-6275
▁mechanics	-6276
▁artificial	-6277
▁attraction	-6278
▁classified	-6279
▁commission	-6280
▁conference	-6281
▁correspond	-6282
▁homosexual	-6283
▁governments	-6284
▁headquarters	-6285
▁concentration	-6286
30	-6287
ET	-6288
ds	-6289
iy	-6290
acc	-6291
nic	-6292
▁1?	-6293
▁Ru	-6294
anag	-6295
aver	-6296
bell	-6297
unes	-6298
zona	-6299
▁CSE	-6300
▁Dig	-6301
▁Dun	-6302
▁Hot	-6303
▁Tra	-6304
▁bra	-6305
▁cer	-6306
▁cig	-6307
▁pal	-6308
,000?	-6309
ancer	-6310
arily	-6311
fered	-6312
▁1997	-6313
▁Dall	-6314
▁Hard	-6315
▁Jews	-6316
▁Linc	-6317
▁Manc	-6318
▁entr	-6319
▁hour	-6320
▁java	-6321
▁load	-6322
▁rice	-6323
▁seek	-6324
▁soda	-6325
▁solo	-6326
bridge	-6327
elling	-6328
incial	-6329
isbane	-6330
lation	-6331
monton	-6332
▁Andre	-6333
▁Jacob	-6334
▁Jason	-6335
▁Maria	-6336
▁Route	-6337
▁airpl	-6338
▁aspir	-6339
▁compl	-6340
▁depos	-6341
▁eaten	-6342
▁filed	-6343
▁homes	-6344
▁lying	-6345
▁panel	-6346
▁snail	-6347
▁theme	-6348
▁trend	-6349
▁Arabia	-6350
▁Commit	-6351
▁Mongol	-6352
▁Palest	-6353
▁Poland	-6354
▁annual	-6355
▁passed	-6356
▁square	-6357
▁vector	-6358
atherine	-6359
▁Collins	-6360
▁Highway	-6361
▁Indiana	-6362
▁Lincoln	-6363
▁Russell	-6364
▁Spotify	-6365
▁algebra	-6366
▁density	-6367
▁desktop	-6368
▁leaving	-6369
▁library	-6370
▁martial	-6371
▁offered	-6372
▁realize	-6373
▁reflect	-6374
▁torrent	-6375
▁Although	-6376
▁Brisbane	-6377
▁producer	-6378
▁teaching	-6379
▁thriller	-6380
▁construct	-6381
▁documents	-6382
▁prominent	-6383
▁eventually	-6384
▁scholarship	-6385
),	-6386
GB	-6387
sp	-6388
agn	-6389
itz	-6390
lad	-6391
she	-6392
uda	-6393
yal	-6394
▁Fe	-6395
▁Oh	-6396
▁Rh	-6397
abor	-6398
alia	-6399
ella	-6400
iced	-6401
lers	-6402
nect	-6403
phia	-6404
rets	-6405
urst	-6406
▁Bad	-6407
▁Gar	-6408
▁Gos	-6409
▁Nep	-6410
▁Tok	-6411
▁Whe	-6412
▁der	-6413
▁kil	-6414
ensus	-6415
opher	-6416
rison	-6417
rogen	-6418
uated	-6419
under	-6420
▁Jake	-6421
▁Jord	-6422
▁Nich	-6423
▁Ross	-6424
▁Snow	-6425
▁Then	-6426
▁copy	-6427
▁grad	-6428
▁jeal	-6429
▁logo	-6430
▁mail	-6431
▁sequ	-6432
▁spin	-6433
▁2015?	-6434
▁Malay	-6435
▁cyber	-6436
▁dance	-6437
▁medal	-6438
▁membr	-6439
▁overl	-6440
▁Brexit	-6441
▁Newton	-6442
▁Punjab	-6443
▁Ranger	-6444
▁forest	-6445
▁matrix	-6446
▁symbol	-6447
▁tattoo	-6448
▁throat	-6449
adelphia	-6450
▁Stewart	-6451
▁actions	-6452
▁appears	-6453
▁jealous	-6454
▁pattern	-6455
▁revenue	-6456
▁weekend	-6457
▁Assembly	-6458
▁Democrat	-6459
▁Southern	-6460
▁atheists	-6461
▁algorithm	-6462
▁answering	-6463
▁celebrate	-6464
▁emotional	-6465
▁marijuana	-6466
▁operation	-6467
▁photograp	-6468
▁portrayed	-6469
▁positions	-6470
▁practical	-6471
▁professor	-6472
otechnology	-6473
▁meditation	-6474
▁profession	-6475
▁psychological	-6476
▁undergraduate	-6477
DA	-6478
di	-6479
iu	-6480
ji	-6481
yo	-6482
▁=	-6483
omy	-6484
sen	-6485
▁Pu	-6486
▁Wi	-6487
▁ax	-6488
▁ec	-6489
anta	-6490
apse	-6491
ette	-6492
igen	-6493
▁BBC	-6494
▁Hor	-6495
▁NBA	-6496
▁cru	-6497
▁gap	-6498
▁shy	-6499
anges	-6500
earch	-6501
encer	-6502
peror	-6503
power	-6504
regon	-6505
ricts	-6506
▁1969	-6507
▁1984	-6508
▁1998	-6509
▁Bask	-6510
▁Blue	-6511
▁Code	-6512
▁Eric	-6513
▁Karn	-6514
▁Moon	-6515
▁phen	-6516
▁poly	-6517
▁sale	-6518
▁subt	-6519
engers	-6520
▁Allen	-6521
▁Brian	-6522
▁Canon	-6523
▁Point	-6524
▁Robin	-6525
▁Their	-6526
▁Three	-6527
▁admit	-6528
▁brief	-6529
▁cryst	-6530
▁fully	-6531
▁label	-6532
▁logic	-6533
▁rough	-6534
▁staff	-6535
▁truck	-6536
▁Oregon	-6537
▁assass	-6538
▁belief	-6539
▁bought	-6540
▁explan	-6541
▁honest	-6542
▁leaves	-6543
▁mirror	-6544
▁possib	-6545
▁reform	-6546
▁sevent	-6547
▁tracks	-6548
▁update	-6549
▁Arizona	-6550
▁Express	-6551
▁airline	-6552
▁experim	-6553
▁falling	-6554
▁finance	-6555
▁turning	-6556
▁Edmonton	-6557
▁Snapchat	-6558
▁attacked	-6559
▁composer	-6560
▁creating	-6561
▁domestic	-6562
▁purchase	-6563
▁Committee	-6564
▁Basketball	-6565
▁contribute	-6566
▁interviews	-6567
▁legitimate	-6568
▁masturbate	-6569
▁motivation	-6570
▁scientists	-6571
▁settlement	-6572
▁mathematical	-6573
▁discontinuing	-6574
-2	-6575
ED	-6576
ES	-6577
oa	-6578
bet	-6579
ils	-6580
▁Ap	-6581
▁Bo	-6582
▁Di	-6583
▁Ep	-6584
▁Kn	-6585
anas	-6586
anka	-6587
cers	-6588
enny	-6589
gers	-6590
ifts	-6591
osen	-6592
▁Kur	-6593
▁Lie	-6594
▁Mit	-6595
▁Mun	-6596
▁NFL	-6597
▁PHP	-6598
▁Pop	-6599
▁Sub	-6600
▁aim	-6601
Press	-6602
essee	-6603
fully	-6604
isher	-6605
oster	-6606
ports	-6607
rants	-6608
rings	-6609
upper	-6610
▁1981	-6611
▁1995	-6612
▁Cant	-6613
▁Ever	-6614
▁eval	-6615
▁iPad	-6616
▁lift	-6617
▁thin	-6618
isible	-6619
▁Hills	-6620
▁Press	-6621
▁Times	-6622
▁alive	-6623
▁audio	-6624
▁cloud	-6625
▁incor	-6626
▁insec	-6627
▁prank	-6628
▁rules	-6629
▁thous	-6630
▁youth	-6631
mission	-6632
▁Desert	-6633
▁Jordan	-6634
▁Norway	-6635
▁actual	-6636
▁agreed	-6637
▁colour	-6638
▁excess	-6639
▁guilty	-6640
▁levels	-6641
▁murder	-6642
▁retrie	-6643
▁scared	-6644
▁shared	-6645
▁Austria	-6646
▁Barbara	-6647
▁Friends	-6648
▁Nations	-6649
▁alcohol	-6650
▁awarded	-6651
▁deliver	-6652
▁flights	-6653
▁optical	-6654
▁updated	-6655
▁Chairman	-6656
▁Scottish	-6657
▁behavior	-6658
▁rational	-6659
▁resource	-6660
▁weakness	-6661
▁withdraw	-6662
▁Tennessee	-6663
▁affiliate	-6664
▁astrology	-6665
▁strangest	-6666
▁Parliament	-6667
▁friendship	-6668
▁represents	-6669
▁terrorists	-6670
▁Philadelphia	-6671
▁constitution	-6672
▁successfully	-6673
▁technologies	-6674
▁certification	-6675
▁manufacturing	-6676
TV	-6677
VD	-6678
aki	-6679
asy	-6680
hot	-6681
ila	-6682
ulf	-6683
zen	-6684
▁AD	-6685
▁Da	-6686
▁EU	-6687
▁HD	-6688
▁HR	-6689
▁IC	-6690
arin	-6691
chen	-6692
eria	-6693
onet	-6694
rive	-6695
vind	-6696
wise	-6697
yers	-6698
▁178	-6699
▁Att	-6700
▁Blu	-6701
▁Cop	-6702
▁Hay	-6703
▁Tes	-6704
icken	-6705
ipped	-6706
▁1962	-6707
▁1971	-6708
▁1982	-6709
▁Cass	-6710
▁Down	-6711
▁More	-6712
▁Musk	-6713
▁cock	-6714
▁dial	-6715
▁disp	-6716
▁fict	-6717
▁foot	-6718
▁hall	-6719
▁hide	-6720
▁nine	-6721
hattan	-6722
odynam	-6723
rowave	-6724
▁Found	-6725
▁Media	-6726
▁Queen	-6727
▁Stand	-6728
▁Young	-6729
▁alien	-6730
▁disab	-6731
▁flush	-6732
▁hyper	-6733
▁minor	-6734
▁nucle	-6735
▁optim	-6736
▁paran	-6737
▁poems	-6738
▁sixth	-6739
▁sugar	-6740
ificate	-6741
▁Arvind	-6742
▁Philip	-6743
▁approx	-6744
▁dishes	-6745
▁exists	-6746
▁fought	-6747
▁helped	-6748
▁sleepy	-6749
▁target	-6750
ducation	-6751
inations	-6752
▁Islamic	-6753
▁accused	-6754
▁borders	-6755
▁growing	-6756
▁mystery	-6757
▁planned	-6758
▁puppies	-6759
▁receive	-6760
▁reverse	-6761
▁upgrade	-6762
▁Muhammad	-6763
▁Sherlock	-6764
▁existing	-6765
▁partners	-6766
▁probably	-6767
▁Brazilian	-6768
▁WordPress	-6769
▁dedicated	-6770
▁districts	-6771
▁interface	-6772
▁microwave	-6773
▁placement	-6774
▁regarding	-6775
▁strongest	-6776
▁Manchester	-6777
▁Revolution	-6778
▁dimensions	-6779
▁electronic	-6780
▁emotionally	-6781
▁immigration	-6782
▁replacement	-6783
▁denomination	-6784
án	-6785
ban	-6786
iac	-6787
irk	-6788
sey	-6789
alty	-6790
omen	-6791
rees	-6792
uten	-6793
▁300	-6794
▁Dal	-6795
▁Guj	-6796
▁Jer	-6797
▁Nag	-6798
▁Nov	-6799
▁ham	-6800
▁nic	-6801
▁sin	-6802
ading	-6803
eless	-6804
inces	-6805
▁Conf	-6806
▁Gill	-6807
▁Ohio	-6808
▁bicy	-6809
▁pret	-6810
▁salt	-6811
celain	-6812
iamond	-6813
▁Bruce	-6814
▁Nepal	-6815
▁Offic	-6816
▁angry	-6817
▁capac	-6818
▁clock	-6819
▁coord	-6820
▁drama	-6821
▁drawn	-6822
▁equip	-6823
anguage	-6824
▁Forest	-6825
▁ancest	-6826
▁circum	-6827
▁cooper	-6828
▁orient	-6829
▁values	-6830
heastern	-6831
▁Finland	-6832
▁Kennedy	-6833
▁Patrick	-6834
▁Premier	-6835
▁Profess	-6836
▁ceremon	-6837
▁complim	-6838
▁forward	-6839
▁mollusk	-6840
▁moments	-6841
▁Services	-6842
▁consumer	-6843
▁retrieve	-6844
▁slightly	-6845
▁soldiers	-6846
▁suitable	-6847
▁variable	-6848
▁versions	-6849
▁Indonesia	-6850
▁Manhattan	-6851
▁challenge	-6852
▁conscious	-6853
▁defeating	-6854
▁mentioned	-6855
▁organized	-6856
▁porcelain	-6857
▁seriously	-6858
▁sociology	-6859
▁Foundation	-6860
▁Management	-6861
▁identified	-6862
▁neutrality	-6863
▁perception	-6864
▁processing	-6865
▁profitable	-6866
▁concentrate	-6867
▁examination	-6868
▁Metropolitan	-6869
19	-6870
RO	-6871
ags	-6872
arp	-6873
awn	-6874
can	-6875
equ	-6876
gun	-6877
ifi	-6878
lah	-6879
obe	-6880
onn	-6881
uru	-6882
van	-6883
▁Ek	-6884
▁RS	-6885
▁iT	-6886
alam	-6887
amps	-6888
ears	-6889
thur	-6890
▁177	-6891
▁BIT	-6892
▁Kim	-6893
▁Moh	-6894
▁Not	-6895
▁Rom	-6896
▁mig	-6897
▁neu	-6898
▁vel	-6899
antly	-6900
antry	-6901
archy	-6902
icial	-6903
iring	-6904
▁1987	-6905
▁4620	-6906
▁Base	-6907
▁Berm	-6908
▁Brad	-6909
▁Capt	-6910
▁Hist	-6911
▁Link	-6912
▁Rupe	-6913
▁Team	-6914
▁arts	-6915
▁bang	-6916
▁boss	-6917
▁push	-6918
▁rise	-6919
▁roll	-6920
▁sons	-6921
esides	-6922
pected	-6923
▁Major	-6924
▁Psych	-6925
▁breed	-6926
▁chart	-6927
▁crash	-6928
▁debut	-6929
▁decre	-6930
▁inher	-6931
▁negot	-6932
▁stick	-6933
aryotic	-6934
ishment	-6935
pective	-6936
▁Barack	-6937
▁Cooper	-6938
▁Please	-6939
▁Public	-6940
▁allows	-6941
▁codice	-6942
▁finger	-6943
▁iTunes	-6944
▁inform	-6945
▁recall	-6946
▁safely	-6947
▁ticket	-6948
▁Conserv	-6949
▁Society	-6950
▁adopted	-6951
▁breakup	-6952
▁calling	-6953
▁citizen	-6954
▁earning	-6955
▁efforts	-6956
▁ethical	-6957
▁legally	-6958
▁screens	-6959
▁tickets	-6960
▁uniform	-6961
▁upvotes	-6962
▁variety	-6963
▁Airprint	-6964
▁clothing	-6965
▁stations	-6966
▁stronger	-6967
▁OfficeJet	-6968
▁authority	-6969
▁earphones	-6970
▁principle	-6971
▁tradition	-6972
▁transform	-6973
▁democratic	-6974
▁resistance	-6975
▁recommended	-6976
▁neighborhood	-6977
40	-6978
Ch	-6979
DP	-6980
GC	-6981
HD	-6982
TE	-6983
bo	-6984
je	-6985
aya	-6986
jan	-6987
kar	-6988
rec	-6989
ubb	-6990
▁Jr	-6991
▁Ur	-6992
abus	-6993
cell	-6994
ials	-6995
isms	-6996
iven	-6997
noon	-6998
wall	-6999
▁179	-7000
▁Adv	-7001
▁Lam	-7002
▁MIT	-7003
▁Nas	-7004
▁cas	-7005
▁cow	-7006
▁nob	-7007
▁ran	-7008
▁tox	-7009
▁van	-7010
iotic	-7011
mouth	-7012
▁1951	-7013
▁Afgh	-7014
▁Andy	-7015
▁Data	-7016
▁Iron	-7017
▁Juan	-7018
▁Mess	-7019
▁Wild	-7020
▁auth	-7021
▁crew	-7022
▁disk	-7023
▁hash	-7024
▁hear	-7025
▁hope	-7026
▁mini	-7027
▁oven	-7028
▁rape	-7029
▁sand	-7030
ampion	-7031
father	-7032
▁Award	-7033
▁Clark	-7034
▁Field	-7035
▁Liter	-7036
▁Redmi	-7037
▁chess	-7038
▁chrom	-7039
▁funny	-7040
▁indic	-7041
▁manip	-7042
▁multi	-7043
▁newly	-7044
▁tummy	-7045
▁union	-7046
▁upper	-7047
iations	-7048
ptitude	-7049
uration	-7050
▁15000?	-7051
▁Dublin	-7052
▁Miller	-7053
▁Nether	-7054
▁Nichol	-7055
▁baking	-7056
▁binary	-7057
▁caring	-7058
▁giving	-7059
▁indian	-7060
▁licens	-7061
▁nearby	-7062
▁notice	-7063
▁severe	-7064
▁shower	-7065
▁traded	-7066
ropriate	-7067
▁Bermuda	-7068
▁cabinet	-7069
▁claimed	-7070
▁covered	-7071
▁decides	-7072
▁existed	-7073
▁painted	-7074
▁refused	-7075
▁venture	-7076
▁visible	-7077
▁Independ	-7078
▁academic	-7079
▁captured	-7080
▁compound	-7081
▁identity	-7082
▁interior	-7083
▁rejected	-7084
▁response	-7085
▁stranger	-7086
▁traveled	-7087
▁afternoon	-7088
▁anonymous	-7089
▁molecular	-7090
▁religions	-7091
▁accounting	-7092
▁candidates	-7093
▁continuous	-7094
▁developers	-7095
▁strategies	-7096
▁prostitution	-7097
▁biotechnology	-7098
):	-7099
-3	-7100
IP	-7101
JP	-7102
dy	-7103
ko	-7104
boy	-7105
irs	-7106
lig	-7107
min	-7108
▁3?	-7109
anks	-7110
apur	-7111
fall	-7112
isis	-7113
mann	-7114
part	-7115
uese	-7116
▁Det	-7117
▁Gre	-7118
▁Lim	-7119
▁Men	-7120
▁Nap	-7121
▁Pur	-7122
▁Ran	-7123
▁Thr	-7124
▁ads	-7125
aging	-7126
apped	-7127
arest	-7128
iency	-7129
ooker	-7130
ursed	-7131
▁1973	-7132
▁Anne	-7133
▁Bomb	-7134
▁CBSE	-7135
▁Elon	-7136
▁Find	-7137
▁Four	-7138
▁iPod	-7139
▁lake	-7140
▁scam	-7141
▁sust	-7142
▁turb	-7143
ighton	-7144
ipping	-7145
lahoma	-7146
▁Dubai	-7147
▁Intel	-7148
▁Radio	-7149
▁brows	-7150
▁feels	-7151
▁fixed	-7152
▁genus	-7153
▁honey	-7154
▁leads	-7155
▁recon	-7156
▁tests	-7157
▁units	-7158
licated	-7159
▁Castle	-7160
▁Dallas	-7161
▁Oliver	-7162
▁Police	-7163
▁carbon	-7164
▁google	-7165
▁street	-7166
▁suburb	-7167
▁transg	-7168
▁vision	-7169
▁Theatre	-7170
▁chicken	-7171
▁expands	-7172
▁joining	-7173
▁killing	-7174
▁lawyers	-7175
▁possess	-7176
▁reports	-7177
▁windows	-7178
▁Election	-7179
▁Oklahoma	-7180
▁applying	-7181
▁assigned	-7182
▁expanded	-7183
▁networks	-7184
▁properly	-7185
▁subjects	-7186
▁establish	-7187
▁happiness	-7188
▁hyderabad	-7189
▁Christians	-7190
▁Philippine	-7191
▁Portuguese	-7192
▁borderline	-7193
▁leadership	-7194
▁purchasing	-7195
▁understanding	-7196
ME	-7197
aga	-7198
eem	-7199
esc	-7200
owa	-7201
tha	-7202
uls	-7203
▁54	-7204
▁99	-7205
▁Pi	-7206
ante	-7207
aren	-7208
arma	-7209
otte	-7210
text	-7211
urga	-7212
▁182	-7213
▁Ast	-7214
▁Bah	-7215
▁DNA	-7216
▁ECE	-7217
▁Hus	-7218
▁Lib	-7219
▁SIM	-7220
▁enh	-7221
▁ens	-7222
▁hob	-7223
▁phr	-7224
▁seg	-7225
▁spl	-7226
ament	-7227
aware	-7228
ordon	-7229
▁1964	-7230
▁Ford	-7231
▁Gall	-7232
▁Gree	-7233
▁Holl	-7234
▁Land	-7235
▁Soft	-7236
▁Warn	-7237
▁Xbox	-7238
▁legs	-7239
▁pian	-7240
▁pill	-7241
▁stom	-7242
▁surr	-7243
▁vine	-7244
arasht	-7245
ellite	-7246
insula	-7247
writer	-7248
▁Class	-7249
▁Cross	-7250
▁Hawai	-7251
▁Later	-7252
▁equal	-7253
▁rival	-7254
▁royal	-7255
▁spect	-7256
▁Afghan	-7257
▁Gordon	-7258
▁Region	-7259
▁albums	-7260
▁chosen	-7261
▁client	-7262
▁combat	-7263
▁convey	-7264
▁extern	-7265
▁museum	-7266
▁output	-7267
▁owners	-7268
▁papers	-7269
▁patent	-7270
▁poison	-7271
▁promot	-7272
▁psychi	-7273
▁showed	-7274
▁wishes	-7275
arashtra	-7276
▁Nigeria	-7277
▁disable	-7278
▁finally	-7279
▁forever	-7280
▁seconds	-7281
▁singing	-7282
▁washing	-7283
▁Atlantic	-7284
▁Franklin	-7285
▁arranged	-7286
▁collapse	-7287
▁commonly	-7288
▁formerly	-7289
▁grandson	-7290
▁historic	-7291
▁lectures	-7292
▁township	-7293
▁vehicles	-7294
▁analytics	-7295
▁attention	-7296
▁entertain	-7297
▁inflation	-7298
▁initially	-7299
▁Christopher	-7300
▁Netherlands	-7301
▁certificate	-7302
▁explanation	-7303
▁participated	-7304
▁administrative	-7305
▁demonetisation	-7306
11	-7307
FC	-7308
RA	-7309
RS	-7310
sm	-7311
Bay	-7312
olo	-7313
oty	-7314
roc	-7315
roe	-7316
▁Ub	-7317
abel	-7318
ader	-7319
agen	-7320
aine	-7321
boro	-7322
care	-7323
emic	-7324
iner	-7325
iser	-7326
izza	-7327
oven	-7328
quis	-7329
wami	-7330
▁Add	-7331
▁Cyr	-7332
▁DVD	-7333
▁Hou	-7334
▁Rac	-7335
▁Wis	-7336
▁bin	-7337
▁dad	-7338
▁fet	-7339
▁flo	-7340
▁gro	-7341
▁ion	-7342
▁kit	-7343
▁mel	-7344
▁mor	-7345
▁nin	-7346
▁unl	-7347
arden	-7348
break	-7349
eline	-7350
state	-7351
▁1930	-7352
▁1977	-7353
▁Chap	-7354
▁Greg	-7355
▁Mort	-7356
▁Mull	-7357
▁Nadu	-7358
▁News	-7359
▁Pear	-7360
▁Utah	-7361
▁dict	-7362
▁fans	-7363
▁fine	-7364
▁oral	-7365
▁sail	-7366
▁tend	-7367
▁warm	-7368
▁wifi	-7369
olkata	-7370
orough	-7371
ultane	-7372
▁Adams	-7373
▁Broad	-7374
▁Night	-7375
▁Roger	-7376
▁Sarah	-7377
▁chest	-7378
▁crazy	-7379
▁falls	-7380
▁fluid	-7381
▁ruled	-7382
▁valid	-7383
actions	-7384
amental	-7385
▁Chrome	-7386
▁Johnny	-7387
▁Museum	-7388
▁crisis	-7389
▁diabet	-7390
▁editor	-7391
▁hostel	-7392
▁houses	-7393
▁lowest	-7394
▁starts	-7395
▁Mississ	-7396
▁Network	-7397
▁ceramic	-7398
▁counter	-7399
▁evening	-7400
▁extreme	-7401
▁fighter	-7402
▁reviews	-7403
▁smaller	-7404
▁Director	-7405
▁Googling	-7406
▁Thompson	-7407
▁category	-7408
▁distract	-7409
▁entrance	-7410
▁external	-7411
▁insecure	-7412
▁membrane	-7413
▁syllabus	-7414
▁Argentina	-7415
▁databases	-7416
▁framework	-7417
▁introduce	-7418
▁parenting	-7419
▁qualified	-7420
▁simultane	-7421
▁astrologer	-7422
▁frequently	-7423
▁photograph	-7424
▁Statistical	-7425
▁programmers	-7426
▁contributions	-7427
EC	-7428
Fi	-7429
LC	-7430
Ps	-7431
St	-7432
ww	-7433
Ind	-7434
ato	-7435
bie	-7436
col	-7437
ira	-7438
obi	-7439
rid	-7440
sis	-7441
▁vo	-7442
alid	-7443
aria	-7444
ogen	-7445
ouch	-7446
phew	-7447
sect	-7448
stic	-7449
untu	-7450
▁Abd	-7451
▁Cab	-7452
▁Ern	-7453
▁Had	-7454
▁Map	-7455
▁Nev	-7456
▁Sus	-7457
▁Tel	-7458
▁Tib	-7459
▁hat	-7460
▁lux	-7461
▁oxy	-7462
▁tom	-7463
▁unc	-7464
▁unp	-7465
▁wel	-7466
ataka	-7467
edded	-7468
inity	-7469
▁1938	-7470
▁1966	-7471
▁1976	-7472
▁Barn	-7473
▁Call	-7474
▁Corp	-7475
▁Here	-7476
▁Live	-7477
▁Mang	-7478
▁Marg	-7479
▁Over	-7480
▁Pier	-7481
▁Real	-7482
▁Rome	-7483
▁Vlad	-7484
▁Well	-7485
▁cake	-7486
▁debt	-7487
▁excl	-7488
▁meal	-7489
▁scal	-7490
▁semi	-7491
▁yout	-7492
anches	-7493
charge	-7494
ocated	-7495
stream	-7496
veland	-7497
▁1000?	-7498
▁Arnab	-7499
▁Chann	-7500
▁Croat	-7501
▁Domin	-7502
▁Evans	-7503
▁Space	-7504
▁bands	-7505
▁bitco	-7506
▁bound	-7507
▁clubs	-7508
▁extro	-7509
▁gifts	-7510
▁looks	-7511
▁solid	-7512
▁texts	-7513
▁thigh	-7514
▁trick	-7515
urities	-7516
utenant	-7517
▁Arthur	-7518
▁Design	-7519
▁Freder	-7520
▁Greece	-7521
▁Julian	-7522
▁Series	-7523
▁biotic	-7524
▁butter	-7525
▁depart	-7526
▁nephew	-7527
▁soccer	-7528
▁therap	-7529
▁traits	-7530
▁Atlanta	-7531
▁Goswami	-7532
▁Kolkata	-7533
▁Spencer	-7534
▁applied	-7535
▁carried	-7536
▁figures	-7537
▁finding	-7538
▁grammar	-7539
▁missing	-7540
▁regions	-7541
▁stomach	-7542
▁writers	-7543
▁Maryland	-7544
▁diabetes	-7545
▁repeated	-7546
▁superflu	-7547
▁supposed	-7548
▁antivirus	-7549
▁materials	-7550
▁recording	-7551
▁compliment	-7552
▁headphones	-7553
▁physically	-7554
▁fundamental	-7555
▁transferred	-7556
▁accidentally	-7557
▁transmission	-7558
80	-7559
CD	-7560
RC	-7561
bn	-7562
bu	-7563
kh	-7564
yc	-7565
arh	-7566
bow	-7567
die	-7568
don	-7569
eda	-7570
enz	-7571
ims	-7572
oga	-7573
oli	-7574
▁80	-7575
▁CM	-7576
▁FI	-7577
▁Hy	-7578
ELTS	-7579
flix	-7580
icul	-7581
itis	-7582
olis	-7583
pool	-7584
roph	-7585
stan	-7586
ulpt	-7587
▁Bry	-7588
▁Cel	-7589
▁Cro	-7590
▁Ins	-7591
▁Job	-7592
▁Kan	-7593
▁Las	-7594
▁Lis	-7595
▁McK	-7596
▁Out	-7597
▁gov	-7598
itors	-7599
kward	-7600
luded	-7601
ombie	-7602
otype	-7603
place	-7604
track	-7605
▁1988	-7606
▁BITS	-7607
▁Bhag	-7608
▁Cape	-7609
▁Expl	-7610
▁Gene	-7611
▁Hung	-7612
▁Jess	-7613
▁Main	-7614
▁Mine	-7615
▁Prov	-7616
▁Vill	-7617
▁bott	-7618
▁dism	-7619
▁foam	-7620
▁mort	-7621
▁rail	-7622
▁rein	-7623
▁shop	-7624
▁task	-7625
▁Camer	-7626
▁Hamil	-7627
▁Human	-7628
▁Kelly	-7629
▁Putin	-7630
▁Simon	-7631
▁Tokyo	-7632
▁aband	-7633
▁beach	-7634
▁bones	-7635
▁coins	-7636
▁deals	-7637
▁dying	-7638
▁entry	-7639
▁horse	-7640
▁infer	-7641
▁loses	-7642
▁roles	-7643
▁shift	-7644
▁simpl	-7645
borough	-7646
▁Austin	-7647
▁Bishop	-7648
▁Colomb	-7649
▁Cursed	-7650
▁Holmes	-7651
▁Jaipur	-7652
▁Marvel	-7653
▁Master	-7654
▁Wilson	-7655
▁Winter	-7656
▁babies	-7657
▁ruling	-7658
▁silver	-7659
▁survey	-7660
▁widely	-7661
tainment	-7662
▁Digital	-7663
▁Medical	-7664
▁Quorans	-7665
▁abiotic	-7666
▁advance	-7667
▁browser	-7668
▁classic	-7669
▁constit	-7670
▁degrees	-7671
▁diploma	-7672
▁letters	-7673
▁offices	-7674
▁retired	-7675
▁seventh	-7676
▁Memorial	-7677
▁criteria	-7678
▁earnings	-7679
▁electrom	-7680
▁generate	-7681
▁investor	-7682
▁mentally	-7683
▁patients	-7684
▁promoted	-7685
▁referred	-7686
▁restored	-7687
▁sexually	-7688
▁survived	-7689
▁villages	-7690
▁Malayalam	-7691
▁computing	-7692
▁emergency	-7693
▁overnight	-7694
▁remaining	-7695
▁virginity	-7696
▁immigrants	-7697
▁principles	-7698
▁superpower	-7699
▁transgender	-7700
▁specifically	-7701
70	-7702
ba	-7703
po	-7704
zi	-7705
agu	-7706
alo	-7707
cia	-7708
dam	-7709
hal	-7710
iva	-7711
jac	-7712
pse	-7713
pty	-7714
spe	-7715
uri	-7716
▁38	-7717
▁BE	-7718
▁PG	-7719
abil	-7720
alse	-7721
aped	-7722
enez	-7723
fast	-7724
itha	-7725
ldog	-7726
umps	-7727
uses	-7728
▁Dor	-7729
▁Dur	-7730
▁Ott	-7731
▁PAN	-7732
▁Ped	-7733
▁Ron	-7734
▁Uri	-7735
▁Van	-7736
▁Vol	-7737
▁era	-7738
▁gra	-7739
▁nor	-7740
▁sam	-7741
▁sty	-7742
Cloud	-7743
itage	-7744
orage	-7745
thlet	-7746
▁1983	-7747
▁1993	-7748
▁Anth	-7749
▁Cold	-7750
▁Core	-7751
▁Oper	-7752
▁Phot	-7753
▁Tony	-7754
▁coal	-7755
▁cree	-7756
▁dies	-7757
▁edge	-7758
▁felt	-7759
▁fuel	-7760
▁rapp	-7761
▁sort	-7762
▁tile	-7763
anning	-7764
nesota	-7765
rehens	-7766
▁2020?	-7767
▁IELTS	-7768
▁Nikon	-7769
▁Prize	-7770
▁Sound	-7771
▁invas	-7772
▁lonel	-7773
▁meets	-7774
▁monum	-7775
▁polic	-7776
▁ratio	-7777
▁renew	-7778
▁thick	-7779
ativity	-7780
lements	-7781
▁Author	-7782
▁Syrian	-7783
▁Ubuntu	-7784
▁Warner	-7785
▁analog	-7786
▁basics	-7787
▁castle	-7788
▁defend	-7789
▁encour	-7790
▁flavor	-7791
▁ghosts	-7792
▁poetry	-7793
▁unfair	-7794
▁Between	-7795
▁Captain	-7796
▁Channel	-7797
▁Connect	-7798
▁Manager	-7799
▁Municip	-7800
▁authors	-7801
▁betting	-7802
▁bicycle	-7803
▁entered	-7804
▁genuine	-7805
▁massive	-7806
▁muscles	-7807
▁nearest	-7808
▁persons	-7809
▁storage	-7810
▁sustain	-7811
▁vinegar	-7812
▁Armenian	-7813
▁Campbell	-7814
▁Constant	-7815
▁Festival	-7816
▁Mathemat	-7817
▁Montreal	-7818
▁animated	-7819
▁collabor	-7820
▁concrete	-7821
▁extended	-7822
▁graphics	-7823
▁possibly	-7824
▁progress	-7825
▁Cleveland	-7826
▁Minnesota	-7827
▁committee	-7828
▁conducted	-7829
▁equipment	-7830
▁fictional	-7831
▁graduated	-7832
▁territory	-7833
▁traveling	-7834
▁Literature	-7835
▁biological	-7836
▁conversion	-7837
▁expression	-7838
▁innovative	-7839
▁superfluid	-7840
▁tournament	-7841
▁Afghanistan	-7842
▁Maharashtra	-7843
▁advertising	-7844
▁complicated	-7845
▁pornography	-7846
▁differential	-7847
▁installation	-7848
15	-7849
FO	-7850
NC	-7851
no	-7852
daq	-7853
erk	-7854
wen	-7855
▁39	-7856
▁Ky	-7857
▁Ro	-7858
▁SS	-7859
▁ug	-7860
Soft	-7861
icit	-7862
ippi	-7863
ocks	-7864
otyp	-7865
than	-7866
vant	-7867
▁150	-7868
▁400	-7869
▁Ark	-7870
▁Bit	-7871
▁Bon	-7872
▁Bos	-7873
▁Bou	-7874
▁Dam	-7875
▁Der	-7876
▁Mas	-7877
▁Rat	-7878
▁Var	-7879
▁Xia	-7880
▁hed	-7881
▁les	-7882
▁map	-7883
▁rug	-7884
adron	-7885
eroid	-7886
helor	-7887
ouver	-7888
uncan	-7889
▁1917	-7890
▁Balt	-7891
▁Clar	-7892
▁Edin	-7893
▁Food	-7894
▁Ryan	-7895
▁crop	-7896
▁elim	-7897
▁fasc	-7898
▁mood	-7899
▁norm	-7900
▁plus	-7901
▁rent	-7902
▁sets	-7903
▁soil	-7904
consin	-7905
ieties	-7906
▁Brist	-7907
▁Color	-7908
▁Davis	-7909
▁Lanka	-7910
▁Lower	-7911
▁Quest	-7912
▁Tesla	-7913
▁Today	-7914
▁agree	-7915
▁birds	-7916
▁costs	-7917
▁false	-7918
▁mosqu	-7919
▁smile	-7920
▁stret	-7921
▁veloc	-7922
idering	-7923
itative	-7924
▁Common	-7925
▁Duncan	-7926
▁Howard	-7927
▁Watson	-7928
▁copper	-7929
▁defeat	-7930
▁desert	-7931
▁geomet	-7932
▁orgasm	-7933
▁oxygen	-7934
▁racing	-7935
▁slowly	-7936
aspberry	-7937
onderful	-7938
▁Charlie	-7939
▁Houston	-7940
▁Netflix	-7941
▁Sanders	-7942
▁Studios	-7943
▁awkward	-7944
▁extract	-7945
▁monitor	-7946
▁pianist	-7947
▁printed	-7948
▁shorter	-7949
▁showing	-7950
▁workers	-7951
▁wounded	-7952
▁Brooklyn	-7953
▁Hamilton	-7954
▁Language	-7955
▁Portugal	-7956
▁Software	-7957
▁Universe	-7958
▁bringing	-7959
▁disabled	-7960
▁educated	-7961
▁intended	-7962
▁numerous	-7963
▁prepared	-7964
▁settings	-7965
▁smartest	-7966
▁supports	-7967
▁triangle	-7968
▁Edinburgh	-7969
▁Wisconsin	-7970
▁decisions	-7971
▁estimated	-7972
▁improving	-7973
▁interpret	-7974
▁practices	-7975
▁satisfied	-7976
▁Queensland	-7977
▁appearance	-7978
▁challenges	-7979
▁freelancer	-7980
▁functional	-7981
▁paranormal	-7982
▁protection	-7983
▁provincial	-7984
▁revolution	-7985
▁screenshot	-7986
▁Information	-7987
▁comfortable	-7988
▁electromagn	-7989
▁suggestions	-7990
▁Entertainment	-7991
▁qualifications	-7992
sk	-7993
?""	-7994
adi	-7995
aks	-7996
how	-7997
iot	-7998
isk	-7999
omi	-8000
opl	-8001
rat	-8002
ruz	-8003
▁48	-8004
▁AM	-8005
▁BC	-8006
▁CI	-8007
▁MA	-8008
▁NT	-8009
▁SD	-8010
▁Up	-8011
▁Us	-8012
▁Wy	-8013
arks	-8014
down	-8015
dule	-8016
ebec	-8017
fred	-8018
teen	-8019
wich	-8020
wick	-8021
▁1.5	-8022
▁Ara	-8023
▁Cas	-8024
▁GPS	-8025
▁NIT	-8026
▁UGC	-8027
▁Vim	-8028
▁fan	-8029
▁kin	-8030
▁luc	-8031
found	-8032
hetic	-8033
inian	-8034
ining	-8035
ocaly	-8036
ption	-8037
riers	-8038
▁1950	-8039
▁1957	-8040
▁Bull	-8041
▁Fair	-8042
▁Film	-8043
▁Gate	-8044
▁Hamb	-8045
▁Iowa	-8046
▁Jama	-8047
▁Katr	-8048
▁Math	-8049
▁Open	-8050
▁Peru	-8051
▁Prim	-8052
▁Sean	-8053
▁Tata	-8054
▁Tier	-8055
▁epic	-8056
▁fing	-8057
▁govt	-8058
▁trag	-8059
ellent	-8060
iables	-8061
luding	-8062
urgaon	-8063
yright	-8064
▁Ahmed	-8065
▁Billy	-8066
▁Death	-8067
▁abuse	-8068
▁angel	-8069
▁angle	-8070
▁error	-8071
▁fruit	-8072
▁items	-8073
▁keeps	-8074
▁moral	-8075
▁paint	-8076
▁toxic	-8077
▁uncle	-8078
ossible	-8079
ropical	-8080
▁Danish	-8081
▁Labour	-8082
▁Mobile	-8083
▁Quebec	-8084
▁bacter	-8085
▁bodies	-8086
▁claims	-8087
▁corner	-8088
▁depend	-8089
▁eldest	-8090
▁explos	-8091
▁extent	-8092
▁formal	-8093
▁margin	-8094
▁medium	-8095
▁metric	-8096
▁nobody	-8097
▁posted	-8098
▁pretty	-8099
▁rental	-8100
▁respir	-8101
▁sculpt	-8102
▁temple	-8103
▁Gujarat	-8104
▁Israeli	-8105
▁Katrina	-8106
▁Physics	-8107
▁Systems	-8108
▁breasts	-8109
▁convent	-8110
▁focused	-8111
▁harmful	-8112
▁payment	-8113
▁recipes	-8114
▁secrets	-8115
▁youtube	-8116
istically	-8117
odynamics	-8118
▁Airlines	-8119
▁Anderson	-8120
▁branches	-8121
▁declined	-8122
▁embedded	-8123
▁requires	-8124
▁robotics	-8125
▁scraping	-8126
▁subscrib	-8127
▁wireless	-8128
▁Executive	-8129
▁Professor	-8130
▁captaincy	-8131
▁consisted	-8132
▁customers	-8133
▁daughters	-8134
▁delicious	-8135
▁equations	-8136
▁foreigner	-8137
▁forgotten	-8138
▁successor	-8139
▁technique	-8140
▁variables	-8141
▁witnessed	-8142
▁maintained	-8143
▁substitute	-8144
▁translated	-8145
▁communicate	-8146
▁interacting	-8147
▁photographer	-8148
▁presentation	-8149
49	-8150
@@	-8151
HL	-8152
OT	-8153
RI	-8154
gi	-8155
rt	-8156
tm	-8157
uj	-8158
IMS	-8159
aws	-8160
bai	-8161
oen	-8162
opy	-8163
▁52	-8164
▁AN	-8165
▁AT	-8166
▁Aj	-8167
▁Id	-8168
▁Ot	-8169
▁SC	-8170
▁Ze	-8171
apes	-8172
ello	-8173
gage	-8174
gate	-8175
imir	-8176
inus	-8177
irty	-8178
lims	-8179
ouns	-8180
rich	-8181
tery	-8182
ttes	-8183
what	-8184
zant	-8185
▁Aar	-8186
▁Chi	-8187
▁Cra	-8188
▁Gro	-8189
▁IPL	-8190
▁Pab	-8191
▁Ret	-8192
▁Tit	-8193
▁laz	-8194
▁tim	-8195
activ	-8196
aling	-8197
avier	-8198
ening	-8199
itals	-8200
organ	-8201
uries	-8202
while	-8203
▁1955	-8204
▁1965	-8205
▁Anna	-8206
▁Azer	-8207
▁Care	-8208
▁Dean	-8209
▁Deep	-8210
▁Exam	-8211
▁Serb	-8212
▁Vanc	-8213
▁alph	-8214
▁chip	-8215
▁eBay	-8216
▁gene	-8217
▁jazz	-8218
▁murd	-8219
▁pure	-8220
▁tack	-8221
Americ	-8222
ffield	-8223
resent	-8224
▁Analy	-8225
▁Kevin	-8226
▁Taffy	-8227
▁Uttar	-8228
▁Vegas	-8229
▁apple	-8230
▁booth	-8231
▁creep	-8232
▁digit	-8233
▁forum	-8234
▁goods	-8235
▁hedge	-8236
▁infat	-8237
▁invol	-8238
▁merch	-8239
▁ocean	-8240
▁posts	-8241
▁quote	-8242
▁saved	-8243
▁twent	-8244
endment	-8245
habited	-8246
ounding	-8247
porated	-8248
stances	-8249
▁Byzant	-8250
▁Follow	-8251
▁Harris	-8252
▁Nasdaq	-8253
▁Origin	-8254
▁Theory	-8255
▁bigger	-8256
▁brands	-8257
▁broker	-8258
▁dinner	-8259
▁ending	-8260
▁escape	-8261
▁refuge	-8262
▁rotate	-8263
▁stable	-8264
▁static	-8265
▁trains	-8266
▁unable	-8267
▁verify	-8268
function	-8269
▁Cricket	-8270
▁Develop	-8271
▁Emperor	-8272
▁Seattle	-8273
▁bedroom	-8274
▁circles	-8275
▁curbing	-8276
▁divorce	-8277
▁dresses	-8278
▁dumbest	-8279
▁enhance	-8280
▁penalty	-8281
▁protest	-8282
▁seasons	-8283
▁smarter	-8284
▁strikes	-8285
▁Cemetery	-8286
▁Standard	-8287
▁aptitude	-8288
▁contacts	-8289
▁distingu	-8290
▁formally	-8291
▁handling	-8292
▁improved	-8293
▁literary	-8294
▁observed	-8295
▁occupied	-8296
▁operates	-8297
▁ordinary	-8298
▁pornstar	-8299
▁pursuing	-8300
▁speakers	-8301
▁velocity	-8302
▁Sheffield	-8303
▁Vancouver	-8304
▁copyright	-8305
▁deviation	-8306
▁inherited	-8307
▁municipal	-8308
▁regularly	-8309
▁accomplish	-8310
▁astronauts	-8311
▁comprehens	-8312
▁passengers	-8313
▁passionate	-8314
▁simulation	-8315
▁appropriate	-8316
▁individuals	-8317
▁politicians	-8318
▁agricultural	-8319
▁billionaires	-8320
▁approximately	-8321
▁simultaneously	-8322
-7	-8323
ao	-8324
cs	-8325
ez	-8326
JEE	-8327
chi	-8328
gon	-8329
igs	-8330
kee	-8331
oyd	-8332
rik	-8333
uce	-8334
▁5'	-8335
▁65	-8336
▁Ay	-8337
▁BP	-8338
▁Li	-8339
▁Na	-8340
▁SR	-8341
▁Ug	-8342
▁du	-8343
ache	-8344
alem	-8345
idel	-8346
irts	-8347
omes	-8348
ovie	-8349
rost	-8350
rugg	-8351
▁Abb	-8352
▁BJP	-8353
▁Bir	-8354
▁Blo	-8355
▁CBS	-8356
▁CPT	-8357
▁CSS	-8358
▁Dak	-8359
▁Hig	-8360
▁Hil	-8361
▁Son	-8362
▁bug	-8363
▁cho	-8364
▁egg	-8365
▁fee	-8366
▁gar	-8367
▁rig	-8368
abhar	-8369
agues	-8370
anded	-8371
atern	-8372
ieved	-8373
imore	-8374
lying	-8375
oming	-8376
opter	-8377
owers	-8378
riger	-8379
▁Benj	-8380
▁Fire	-8381
▁Jenn	-8382
▁Kann	-8383
▁Kath	-8384
▁Lith	-8385
▁Sans	-8386
▁Whit	-8387
▁doub	-8388
▁elev	-8389
▁fees	-8390
▁hasn	-8391
▁hier	-8392
▁kidn	-8393
▁pull	-8394
▁rebu	-8395
▁tong	-8396
employ	-8397
encies	-8398
ilding	-8399
▁Milky	-8400
▁Myers	-8401
▁Prote	-8402
▁Salem	-8403
▁Techn	-8404
▁beard	-8405
▁diagn	-8406
▁drums	-8407
▁empty	-8408
▁finds	-8409
▁frust	-8410
▁inner	-8411
▁maths	-8412
▁moder	-8413
▁naked	-8414
▁nowad	-8415
▁penet	-8416
▁risks	-8417
▁sight	-8418
▁smoke	-8419
▁split	-8420
▁strip	-8421
▁swall	-8422
▁vocal	-8423
▁whats	-8424
▁wheel	-8425
▁yield	-8426
acement	-8427
achines	-8428
assador	-8429
instein	-8430
tically	-8431
utation	-8432
▁Arabic	-8433
▁Bombay	-8434
▁Carter	-8435
▁Econom	-8436
▁Silver	-8437
▁accent	-8438
▁biased	-8439
▁contro	-8440
▁detail	-8441
▁fellow	-8442
▁finite	-8443
▁heaven	-8444
▁inches	-8445
▁linked	-8446
▁luxury	-8447
▁miscon	-8448
▁signal	-8449
▁skinny	-8450
▁strugg	-8451
▁subtit	-8452
▁tablet	-8453
▁tennis	-8454
wanathan	-8455
▁Abraham	-8456
▁Printer	-8457
▁Springs	-8458
▁alleged	-8459
▁biology	-8460
▁collaps	-8461
▁concert	-8462
▁drawing	-8463
▁evolved	-8464
▁fantasy	-8465
▁farmers	-8466
▁flavors	-8467
▁genetic	-8468
▁kinetic	-8469
▁objects	-8470
▁parties	-8471
▁savings	-8472
▁sending	-8473
▁shortly	-8474
▁shuttle	-8475
▁signals	-8476
▁Kentucky	-8477
▁Peterson	-8478
▁Reliance	-8479
▁addicted	-8480
▁commerce	-8481
▁creation	-8482
▁shooting	-8483
▁throwing	-8484
▁Baltimore	-8485
▁Palestine	-8486
▁Represent	-8487
▁communist	-8488
▁dimension	-8489
▁discovery	-8490
▁excellent	-8491
▁invisible	-8492
▁originate	-8493
▁releasing	-8494
▁typically	-8495
▁facilities	-8496
▁journalist	-8497
▁loneliness	-8498
▁opposition	-8499
▁traditions	-8500
▁considering	-8501
▁disappeared	-8502
▁illustrated	-8503
▁influential	-8504
▁supplements	-8505
▁destinations	-8506
▁evolutionary	-8507
▁particularly	-8508
▁representative	-8509
4?	-8510
62	-8511
MI	-8512
TO	-8513
aha	-8514
aza	-8515
gic	-8516
gus	-8517
hya	-8518
lem	-8519
oit	-8520
rod	-8521
uka	-8522
▁4?	-8523
▁CO	-8524
▁FC	-8525
▁PD	-8526
▁Yu	-8527
▁id	-8528
▁ip	-8529
acco	-8530
assy	-8531
avia	-8532
best	-8533
comp	-8534
dale	-8535
girl	-8536
icut	-8537
ilet	-8538
izon	-8539
ocal	-8540
ocon	-8541
oria	-8542
ouri	-8543
ules	-8544
▁Cow	-8545
▁Deb	-8546
▁ODI	-8547
▁Six	-8548
▁bip	-8549
▁dys	-8550
▁tut	-8551
adium	-8552
alent	-8553
amily	-8554
anian	-8555
ilers	-8556
orous	-8557
uency	-8558
▁1921	-8559
▁1942	-8560
▁1953	-8561
▁1958	-8562
▁Brun	-8563
▁Cost	-8564
▁Cuba	-8565
▁Home	-8566
▁Ruby	-8567
▁Were	-8568
▁aren	-8569
▁atom	-8570
▁cycl	-8571
▁dish	-8572
▁dual	-8573
▁fled	-8574
▁isot	-8575
▁jack	-8576
▁navy	-8577
▁plot	-8578
▁sadd	-8579
▁upsc	-8580
baijan	-8581
elaide	-8582
ellect	-8583
ortion	-8584
▁2014?	-8585
▁About	-8586
▁Adolf	-8587
▁Cyrus	-8588
▁Every	-8589
▁Guard	-8590
▁Judge	-8591
▁Medic	-8592
▁Pablo	-8593
▁Phill	-8594
▁Store	-8595
▁effic	-8596
▁faces	-8597
▁firms	-8598
▁haven	-8599
▁helic	-8600
▁myths	-8601
▁pleas	-8602
▁polar	-8603
▁sides	-8604
▁steel	-8605
▁trace	-8606
isexual	-8607
▁Balaji	-8608
▁Bulgar	-8609
▁Centre	-8610
▁Doctor	-8611
▁Indust	-8612
▁Invest	-8613
▁Legisl	-8614
▁Michel	-8615
▁Sports	-8616
▁bishop	-8617
▁crimes	-8618
▁donate	-8619
▁ethnic	-8620
▁fallen	-8621
▁finish	-8622
▁gained	-8623
▁locate	-8624
▁loving	-8625
▁recipe	-8626
▁routes	-8627
▁solved	-8628
▁weekly	-8629
ceptions	-8630
▁Angular	-8631
▁Antonio	-8632
▁Chandra	-8633
▁Despite	-8634
▁Foreign	-8635
▁Goldman	-8636
▁Macbook	-8637
▁Machine	-8638
▁Silicon	-8639
▁Univers	-8640
▁compete	-8641
▁cooking	-8642
▁granted	-8643
▁hottest	-8644
▁islands	-8645
▁microsc	-8646
▁recruit	-8647
▁routine	-8648
▁saddest	-8649
▁shouldn	-8650
▁snooker	-8651
▁solving	-8652
▁teenage	-8653
▁thermal	-8654
▁warrant	-8655
▁wealthy	-8656
▁Adelaide	-8657
▁Railroad	-8658
▁Robinson	-8659
▁admitted	-8660
▁attorney	-8661
▁eligible	-8662
▁measured	-8663
▁measures	-8664
▁nowadays	-8665
▁optional	-8666
▁removing	-8667
▁resigned	-8668
▁syndrome	-8669
▁youngest	-8670
▁Authority	-8671
▁Byzantine	-8672
▁Cambridge	-8673
▁Catherine	-8674
▁Karnataka	-8675
▁alongside	-8676
▁paintings	-8677
▁pollution	-8678
▁producers	-8679
▁receiving	-8680
▁residents	-8681
▁separated	-8682
▁suffering	-8683
▁thousands	-8684
▁wonderful	-8685
▁Azerbaijan	-8686
▁abolishing	-8687
▁automobile	-8688
▁celebrated	-8689
▁consultant	-8690
▁efficiency	-8691
▁increasing	-8692
▁newspapers	-8693
▁popularity	-8694
▁punishment	-8695
▁screenplay	-8696
▁Connecticut	-8697
▁institutions	-8698
▁preparations	-8699
▁entertainment	-8700
▁organizations	-8701
-4	-8702
32	-8703
AE	-8704
AF	-8705
SA	-8706
jo	-8707
vo	-8708
▁‘	-8709
alt	-8710
bes	-8711
bro	-8712
fit	-8713
iti	-8714
lar	-8715
ukh	-8716
una	-8717
▁37	-8718
▁Dj	-8719
▁IF	-8720
▁Pa	-8721
▁ju	-8722
▁kn	-8723
apor	-8724
asty	-8725
comm	-8726
cott	-8727
eder	-8728
feld	-8729
gely	-8730
iary	-8731
kart	-8732
olid	-8733
oore	-8734
rane	-8735
resa	-8736
rist	-8737
scar	-8738
umes	-8739
ynom	-8740
▁1.2	-8741
▁Adm	-8742
▁GDP	-8743
▁Gra	-8744
▁Ice	-8745
▁JAM	-8746
▁Jam	-8747
▁Rav	-8748
▁Say	-8749
▁Sid	-8750
▁Sky	-8751
▁Sug	-8752
▁bid	-8753
▁bow	-8754
▁jew	-8755
▁nom	-8756
▁pra	-8757
anmar	-8758
eding	-8759
idden	-8760
itled	-8761
pling	-8762
rador	-8763
utely	-8764
▁1920	-8765
▁1932	-8766
▁1947	-8767
▁1978	-8768
▁Dick	-8769
▁Hosp	-8770
▁Rena	-8771
▁Sach	-8772
▁Sadd	-8773
▁arms	-8774
▁belt	-8775
▁blow	-8776
▁cart	-8777
▁chap	-8778
▁hors	-8779
▁mand	-8780
▁outl	-8781
▁sick	-8782
▁sung	-8783
▁tiny	-8784
▁unhe	-8785
▁valu	-8786
▁whey	-8787
incess	-8788
oustic	-8789
umbent	-8790
usalem	-8791
▁Blair	-8792
▁Kumar	-8793
▁advis	-8794
▁atoms	-8795
▁chips	-8796
▁climb	-8797
▁eleph	-8798
▁giant	-8799
▁gross	-8800
▁honor	-8801
▁labor	-8802
▁ninth	-8803
▁rapid	-8804
▁repro	-8805
▁rugby	-8806
▁sharp	-8807
▁spoke	-8808
▁sweet	-8809
▁trees	-8810
▁verbs	-8811
▁Alaska	-8812
▁Justin	-8813
▁Oracle	-8814
▁Social	-8815
▁Writer	-8816
▁adding	-8817
▁apprec	-8818
▁atomic	-8819
▁bitter	-8820
▁breaks	-8821
▁empire	-8822
▁filter	-8823
▁iCloud	-8824
▁landsc	-8825
▁obtain	-8826
▁proven	-8827
▁refers	-8828
▁suffer	-8829
▁zombie	-8830
ocalypse	-8831
▁Belgium	-8832
▁Bulldog	-8833
▁Cameron	-8834
▁Myanmar	-8835
▁Project	-8836
▁carrier	-8837
▁credits	-8838
▁decline	-8839
▁descent	-8840
▁dismiss	-8841
▁helpful	-8842
▁housing	-8843
▁landing	-8844
▁largely	-8845
▁lesbian	-8846
▁nations	-8847
▁nucleus	-8848
▁stretch	-8849
▁upvoted	-8850
▁Benjamin	-8851
▁Russians	-8852
▁argument	-8853
▁believed	-8854
▁brothers	-8855
▁ceremony	-8856
▁cleaning	-8857
▁relation	-8858
▁relevant	-8859
▁smallest	-8860
▁swimming	-8861
▁thorough	-8862
▁vertical	-8863
▁visiting	-8864
▁Antivirus	-8865
▁Charlotte	-8866
▁Following	-8867
▁Jerusalem	-8868
▁Peninsula	-8869
▁advertise	-8870
▁component	-8871
▁conductor	-8872
▁expressed	-8873
▁extrovert	-8874
▁formation	-8875
▁nominated	-8876
▁operators	-8877
▁processes	-8878
▁processor	-8879
▁provinces	-8880
▁realistic	-8881
▁Conference	-8882
▁PeopleSoft	-8883
▁absolutely	-8884
▁foreigners	-8885
▁narcissist	-8886
▁personally	-8887
▁productive	-8888
▁documentary	-8889
▁infatuation	-8890
▁translation	-8891
▁conservative	-8892
▁displacement	-8893
▁experimental	-8894
▁independence	-8895
▁psychologist	-8896
▁championships	-8897
▁parliamentary	-8898
,4	-8899
18	-8900
90	-8901
AC	-8902
__	-8903
gu	-8904
ti	-8905
...	-8906
Pal	-8907
aco	-8908
bed	-8909
isi	-8910
low	-8911
reb	-8912
sex	-8913
uis	-8914
was	-8915
▁75	-8916
▁81	-8917
▁93	-8918
▁CV	-8919
▁Ll	-8920
asia	-8921
folk	-8922
ifer	-8923
inte	-8924
ione	-8925
oded	-8926
othy	-8927
page	-8928
prus	-8929
rena	-8930
role	-8931
seud	-8932
stru	-8933
thes	-8934
ture	-8935
▁164	-8936
▁20?	-8937
▁API	-8938
▁CFA	-8939
▁DSL	-8940
▁Dil	-8941
▁Dow	-8942
▁Let	-8943
▁Ola	-8944
▁Row	-8945
▁Sah	-8946
▁cov	-8947
▁loy	-8948
▁mit	-8949
▁san	-8950
▁spr	-8951
athon	-8952
eller	-8953
ially	-8954
ingly	-8955
oscow	-8956
ourse	-8957
rents	-8958
stown	-8959
wares	-8960
▁1888	-8961
▁1934	-8962
▁1935	-8963
▁1940	-8964
▁1956	-8965
▁1961	-8966
▁Alan	-8967
▁Auck	-8968
▁Conc	-8969
▁Free	-8970
▁Glas	-8971
▁Karl	-8972
▁Like	-8973
▁Maps	-8974
▁Mill	-8975
▁Nash	-8976
▁Rand	-8977
▁Song	-8978
▁Tanz	-8979
▁Turn	-8980
▁Wang	-8981
▁Wing	-8982
▁axis	-8983
▁batt	-8984
▁cine	-8985
▁cogn	-8986
▁erad	-8987
▁fert	-8988
▁luck	-8989
▁tail	-8990
▁unin	-8991
▁warn	-8992
apolis	-8993
enders	-8994
inking	-8995
▁2018?	-8996
▁Barry	-8997
▁Eston	-8998
▁Ghana	-8999
▁Iraqi	-9000
▁Leban	-9001
▁Maine	-9002
▁Oscar	-9003
▁Rahul	-9004
▁Saint	-9005
▁Smart	-9006
▁Tommy	-9007
▁Venez	-9008
▁cheat	-9009
▁draft	-9010
▁femin	-9011
▁knows	-9012
▁patri	-9013
▁pills	-9014
▁plate	-9015
▁shock	-9016
▁talks	-9017
▁tough	-9018
▁voted	-9019
arettes	-9020
inating	-9021
issance	-9022
sterdam	-9023
▁Athens	-9024
▁Clarke	-9025
▁Cyprus	-9026
▁Hawaii	-9027
▁Moscow	-9028
▁Nevada	-9029
▁Peters	-9030
▁Season	-9031
▁Wright	-9032
▁appeal	-9033
▁digest	-9034
▁erotic	-9035
▁finals	-9036
▁incred	-9037
▁nomine	-9038
▁purpos	-9039
▁router	-9040
▁saving	-9041
▁serial	-9042
▁titles	-9043
▁toilet	-9044
▁vocals	-9045
▁winner	-9046
restrial	-9047
▁Brother	-9048
▁Control	-9049
▁Country	-9050
▁Enfield	-9051
▁Herbert	-9052
▁Liberal	-9053
▁Norfolk	-9054
▁Snowden	-9055
▁Wallace	-9056
▁bassist	-9057
▁bipolar	-9058
▁centers	-9059
▁coastal	-9060
▁coolest	-9061
▁couples	-9062
▁damaged	-9063
▁defense	-9064
▁drivers	-9065
▁fingers	-9066
▁hearing	-9067
▁injured	-9068
▁matches	-9069
▁menstru	-9070
▁plastic	-9071
▁polynom	-9072
▁researc	-9073
▁tourism	-9074
▁violent	-9075
▁wearing	-9076
▁Auckland	-9077
▁Learning	-9078
▁Leonardo	-9079
▁Margaret	-9080
▁Venezuel	-9081
▁accompan	-9082
▁advertis	-9083
▁baseball	-9084
▁disaster	-9085
▁friction	-9086
▁happiest	-9087
▁infected	-9088
▁inspired	-9089
▁proteins	-9090
▁protocol	-9091
▁republic	-9092
▁snapchat	-9093
ographical	-9094
▁Secondary	-9095
▁animation	-9096
▁certified	-9097
▁collapsed	-9098
▁communism	-9099
▁creepiest	-9100
▁distribut	-9101
▁inspiring	-9102
▁intellect	-9103
▁interests	-9104
▁invention	-9105
▁replacing	-9106
▁satellite	-9107
▁secretary	-9108
▁Electrical	-9109
▁cigarettes	-9110
▁comparison	-9111
▁controlled	-9112
▁elementary	-9113
▁industries	-9114
▁innovation	-9115
▁performing	-9116
▁statistics	-9117
▁supporting	-9118
▁businessman	-9119
▁differently	-9120
▁interaction	-9121
▁manufactured	-9122
▁motivational	-9123
▁Championships	-9124
▁investigators	-9125
▁philosophical	-9126
55	-9127
66	-9128
IV	-9129
Ne	-9130
ón	-9131
”?	-9132
▁#	-9133
▁*	-9134
100	-9135
amo	-9136
asa	-9137
cup	-9138
ois	-9139
osa	-9140
sil	-9141
▁77	-9142
▁Cz	-9143
▁PP	-9144
▁ca	-9145
2000	-9146
alal	-9147
angh	-9148
athi	-9149
cend	-9150
krit	-9151
olen	-9152
ropy	-9153
rose	-9154
term	-9155
ugby	-9156
umph	-9157
unte	-9158
▁250	-9159
▁Dec	-9160
▁Dif	-9161
▁Fur	-9162
▁Han	-9163
▁Hed	-9164
▁Lyn	-9165
▁NBC	-9166
▁NCR	-9167
▁Pil	-9168
▁SAT	-9169
▁Sem	-9170
▁Tro	-9171
▁jun	-9172
▁pee	-9173
▁rub	-9174
▁shr	-9175
▁tel	-9176
▁tip	-9177
▁tob	-9178
aints	-9179
althy	-9180
bolic	-9181
chest	-9182
cules	-9183
endar	-9184
going	-9185
ifier	-9186
ocket	-9187
orean	-9188
otely	-9189
overs	-9190
rible	-9191
▁1891	-9192
▁Benn	-9193
▁Comb	-9194
▁Crow	-9195
▁Dead	-9196
▁Finn	-9197
▁Head	-9198
▁Hoff	-9199
▁Lady	-9200
▁Maur	-9201
▁NTSE	-9202
▁Pass	-9203
▁Pict	-9204
▁Show	-9205
▁Sony	-9206
▁Vish	-9207
▁asks	-9208
▁cuts	-9209
▁dent	-9210
▁forg	-9211
▁gall	-9212
▁lakh	-9213
▁rect	-9214
▁rude	-9215
▁snow	-9216
▁sore	-9217
▁spot	-9218
▁ugly	-9219
▁util	-9220
atrist	-9221
atural	-9222
braska	-9223
ifying	-9224
illing	-9225
itbull	-9226
orders	-9227
ulator	-9228
undred	-9229
urning	-9230
▁Bloom	-9231
▁Czech	-9232
▁Light	-9233
▁Linda	-9234
▁Moore	-9235
▁Rings	-9236
▁Rugby	-9237
▁Story	-9238
▁Theod	-9239
▁Trade	-9240
▁Years	-9241
▁adopt	-9242
▁bonds	-9243
▁comed	-9244
▁debit	-9245
▁flies	-9246
▁grass	-9247
▁hasht	-9248
▁heads	-9249
▁irrit	-9250
▁kinds	-9251
▁mayor	-9252
▁oppon	-9253
▁quite	-9254
▁seems	-9255
▁shave	-9256
▁stere	-9257
ictions	-9258
section	-9259
▁Bernie	-9260
▁Foster	-9261
▁Knight	-9262
▁Online	-9263
▁Powell	-9264
▁Scient	-9265
▁alphab	-9266
▁awards	-9267
▁banker	-9268
▁boards	-9269
▁census	-9270
▁copies	-9271
▁covers	-9272
▁deputy	-9273
▁discip	-9274
▁horses	-9275
▁junior	-9276
▁nicest	-9277
▁pickup	-9278
▁rapper	-9279
▁safest	-9280
▁spring	-9281
▁stages	-9282
▁stolen	-9283
▁tongue	-9284
▁trends	-9285
▁Alberta	-9286
▁Anthony	-9287
▁clients	-9288
▁designs	-9289
▁dislike	-9290
▁dynamic	-9291
▁emotion	-9292
▁funeral	-9293
▁holding	-9294
▁instant	-9295
▁invalid	-9296
▁justice	-9297
▁proceed	-9298
▁propose	-9299
▁strengt	-9300
▁theorem	-9301
▁tobacco	-9302
▁victims	-9303
▁waiting	-9304
▁worried	-9305
▁Attorney	-9306
▁Colorado	-9307
▁Electric	-9308
▁Hospital	-9309
▁Lawrence	-9310
▁Portland	-9311
▁Research	-9312
▁airplane	-9313
▁assembly	-9314
▁blogging	-9315
▁concepts	-9316
▁dictator	-9317
▁employee	-9318
▁freshers	-9319
▁licensed	-9320
▁musician	-9321
▁particle	-9322
▁periodic	-9323
▁purposes	-9324
▁restrict	-9325
▁substant	-9326
▁valuable	-9327
▁Amsterdam	-9328
▁Education	-9329
▁Frederick	-9330
▁apartment	-9331
▁breakfast	-9332
▁contained	-9333
▁describes	-9334
▁electrons	-9335
▁guitarist	-9336
▁hospitals	-9337
▁induction	-9338
▁mechanism	-9339
▁neighbour	-9340
▁prospects	-9341
▁sensitive	-9342
▁subtitles	-9343
▁succeeded	-9344
▁therefore	-9345
▁controvers	-9346
▁creativity	-9347
▁instrument	-9348
▁overweight	-9349
▁placements	-9350
▁structural	-9351
▁vegetarian	-9352
▁grandfather	-9353
▁participate	-9354
▁alternatives	-9355
▁architecture	-9356
▁introduction	-9357
▁northwestern	-9358
▁circumstances	-9359
▁consciousness	-9360
▁electromagnetic	-9361
3?	-9362
6?	-9363
87	-9364
GO	-9365
QL	-9366
SO	-9367
hm	-9368
ör	-9369
-19	-9370
ATO	-9371
Com	-9372
Eng	-9373
aux	-9374
cca	-9375
emy	-9376
gro	-9377
hou	-9378
iga	-9379
iza	-9380
jit	-9381
olm	-9382
onz	-9383
phy	-9384
rov	-9385
tes	-9386
ulu	-9387
usc	-9388
▁44	-9389
▁Od	-9390
▁Ud	-9391
▁Vi	-9392
▁ov	-9393
▁rh	-9394
?"""	-9395
aled	-9396
ango	-9397
anny	-9398
ario	-9399
bird	-9400
gian	-9401
glas	-9402
hard	-9403
mate	-9404
mosp	-9405
onna	-9406
pass	-9407
uted	-9408
with	-9409
ylan	-9410
▁Far	-9411
▁Gab	-9412
▁Hon	-9413
▁Hur	-9414
▁Imp	-9415
▁Jen	-9416
▁Kat	-9417
▁Ker	-9418
▁Lad	-9419
▁Lev	-9420
▁McM	-9421
▁Mrs	-9422
▁NGO	-9423
▁Nad	-9424
▁OCD	-9425
▁Raf	-9426
▁Ral	-9427
▁Ren	-9428
▁Str	-9429
▁Tan	-9430
▁WWE	-9431
▁bot	-9432
▁fro	-9433
▁jur	-9434
▁lad	-9435
▁raw	-9436
▁tet	-9437
▁tot	-9438
▁vag	-9439
▁ven	-9440
▁wet	-9441
abric	-9442
chell	-9443
cribe	-9444
duino	-9445
hones	-9446
nergy	-9447
oning	-9448
plant	-9449
verts	-9450
ystem	-9451
▁1860	-9452
▁1919	-9453
▁1922	-9454
▁1923	-9455
▁1927	-9456
▁1936	-9457
▁1941	-9458
▁1954	-9459
▁Bowl	-9460
▁Bron	-9461
▁Buff	-9462
▁Bure	-9463
▁Cham	-9464
▁Chem	-9465
▁Fern	-9466
▁Hend	-9467
▁Jobs	-9468
▁NATO	-9469
▁Palm	-9470
▁Pant	-9471
▁Rice	-9472
▁Tren	-9473
▁Verm	-9474
▁Yang	-9475
▁abst	-9476
▁clar	-9477
▁door	-9478
▁drag	-9479
▁duty	-9480
▁font	-9481
▁hell	-9482
▁horn	-9483
▁maps	-9484
▁mild	-9485
▁pork	-9486
▁pune	-9487
▁surf	-9488
▁tang	-9489
▁wars	-9490
active	-9491
entric	-9492
former	-9493
heimer	-9494
intend	-9495
istant	-9496
sville	-9497
▁Colon	-9498
▁Dylan	-9499
▁Eagle	-9500
▁Filip	-9501
▁Indus	-9502
▁Kapil	-9503
▁Kings	-9504
▁Krist	-9505
▁Labor	-9506
▁Larry	-9507
▁Maple	-9508
▁Marsh	-9509
▁Phoen	-9510
▁Tibet	-9511
▁apart	-9512
▁bread	-9513
▁discl	-9514
▁meals	-9515
▁pizza	-9516
▁suffe	-9517
▁weigh	-9518
autions	-9519
itarian	-9520
rations	-9521
writing	-9522
▁2016)?	-9523
▁Agency	-9524
▁Arnold	-9525
▁Dragon	-9526
▁Harvey	-9527
▁Parker	-9528
▁Serbia	-9529
▁Warren	-9530
▁agents	-9531
▁autism	-9532
▁cheese	-9533
▁circle	-9534
▁desire	-9535
▁execut	-9536
▁hockey	-9537
▁insect	-9538
▁iphone	-9539
▁limits	-9540
▁looked	-9541
▁makeup	-9542
▁metals	-9543
▁occurs	-9544
▁permit	-9545
▁photon	-9546
▁racism	-9547
▁riding	-9548
▁ripple	-9549
▁snails	-9550
▁spaces	-9551
▁violin	-9552
▁waters	-9553
ications	-9554
secutors	-9555
standing	-9556
▁Bristol	-9557
▁Defence	-9558
▁Demonet	-9559
▁Douglas	-9560
▁Holland	-9561
▁Senator	-9562
▁Somalia	-9563
▁Special	-9564
▁acceler	-9565
▁beliefs	-9566
▁booking	-9567
▁cancell	-9568
▁ceiling	-9569
▁context	-9570
▁crossed	-9571
▁crystal	-9572
▁engines	-9573
▁experts	-9574
▁glasses	-9575
▁keeping	-9576
▁overlay	-9577
▁prostit	-9578
▁reduced	-9579
▁resorts	-9580
▁ripples	-9581
▁segment	-9582
▁worship	-9583
ictionary	-9584
▁Administ	-9585
▁Buddhism	-9586
▁Colombia	-9587
▁Columbus	-9588
▁Delaware	-9589
▁Labrador	-9590
▁Mahabhar	-9591
▁Missouri	-9592
▁Mitchell	-9593
▁Tanzania	-9594
▁Vladimir	-9595
▁agencies	-9596
▁announce	-9597
▁approval	-9598
▁audience	-9599
▁bordered	-9600
▁counties	-9601
▁delivery	-9602
▁diseases	-9603
▁hardware	-9604
▁maintain	-9605
▁revealed	-9606
▁tourists	-9607
▁whatsapp	-9608
▁worrying	-9609
▁Bengaluru	-9610
▁Raspberry	-9611
▁biography	-9612
▁directors	-9613
▁exception	-9614
▁excessive	-9615
▁extension	-9616
▁immigrate	-9617
▁motivates	-9618
▁mythology	-9619
▁platforms	-9620
▁preferred	-9621
▁returning	-9622
▁stupidest	-9623
▁unhealthy	-9624
▁apocalypse	-9625
▁impossible	-9626
▁professors	-9627
▁relativity	-9628
▁soundtrack	-9629
▁specialist	-9630
▁Mississippi	-9631
▁contributed	-9632
▁dysfunction	-9633
▁legislation	-9634
▁legislative	-9635
▁precautions	-9636
▁residential	-9637
▁constituency	-9638
▁demonetizing	-9639
▁entrepreneurs	-9640
▁homosexuality	-9641
▁professionals	-9642
▁significantly	-9643
▁thermodynamics	-9644
,3	-9645
MO	-9646
pa	-9647
▁!	-9648
ctu	-9649
isy	-9650
kal	-9651
lex	-9652
ras	-9653
uma	-9654
▁87	-9655
▁92	-9656
▁Ax	-9657
▁Lo	-9658
▁MD	-9659
▁Py	-9660
acks	-9661
anth	-9662
cker	-9663
emen	-9664
orne	-9665
rors	-9666
yond	-9667
▁Ban	-9668
▁Box	-9669
▁Lah	-9670
▁Log	-9671
▁Lud	-9672
▁Mos	-9673
▁Nel	-9674
▁Oak	-9675
▁Saf	-9676
▁Sel	-9677
▁Sig	-9678
▁Viv	-9679
▁bom	-9680
▁ias	-9681
▁rib	-9682
▁row	-9683
▁sed	-9684
▁sky	-9685
abama	-9686
ables	-9687
hered	-9688
idays	-9689
ighth	-9690
illed	-9691
oples	-9692
uther	-9693
▁1943	-9694
▁Cruz	-9695
▁Dave	-9696
▁Girl	-9697
▁Gulf	-9698
▁Hold	-9699
▁Holy	-9700
▁Nord	-9701
▁Pope	-9702
▁Time	-9703
▁Work	-9704
▁anch	-9705
▁bare	-9706
▁bath	-9707
▁bull	-9708
▁golf	-9709
▁grey	-9710
▁guns	-9711
▁jump	-9712
▁junk	-9713
▁loud	-9714
▁mile	-9715
▁neck	-9716
▁nerv	-9717
▁pant	-9718
▁pump	-9719
▁quad	-9720
▁tens	-9721
etooth	-9722
itants	-9723
itches	-9724
ocaust	-9725
ranean	-9726
struct	-9727
▁60000	-9728
▁AIIMS	-9729
▁Adobe	-9730
▁Falls	-9731
▁Hotel	-9732
▁Kenya	-9733
▁Krish	-9734
▁Organ	-9735
▁Sunni	-9736
▁auton	-9737
▁aware	-9738
▁bases	-9739
▁breat	-9740
▁crick	-9741
▁fears	-9742
▁flash	-9743
▁fleet	-9744
▁guest	-9745
▁imper	-9746
▁karma	-9747
▁laser	-9748
▁layer	-9749
▁metro	-9750
▁mouse	-9751
▁param	-9752
▁physi	-9753
▁sched	-9754
▁sheet	-9755
▁ships	-9756
▁storm	-9757
▁thank	-9758
▁tyres	-9759
▁waist	-9760
▁yours	-9761
Pitbull	-9762
casting	-9763
ighters	-9764
natural	-9765
▁Hallow	-9766
▁Junior	-9767
▁Linked	-9768
▁Morgan	-9769
▁Ronald	-9770
▁Saddam	-9771
▁Xiaomi	-9772
▁argued	-9773
▁atmosp	-9774
▁cancel	-9775
▁cataly	-9776
▁digits	-9777
▁ethics	-9778
▁export	-9779
▁fetish	-9780
▁hidden	-9781
▁immort	-9782
▁premie	-9783
▁ranges	-9784
▁stores	-9785
▁volcan	-9786
▁wouldn	-9787
ferences	-9788
▁History	-9789
▁Officer	-9790
▁belongs	-9791
▁bitcoin	-9792
▁clearly	-9793
▁compens	-9794
▁flowers	-9795
▁humping	-9796
▁iPhones	-9797
▁opposed	-9798
▁passive	-9799
▁patient	-9800
▁peoples	-9801
▁periods	-9802
▁proport	-9803
▁subsequ	-9804
▁subsidi	-9805
▁travels	-9806
▁wildest	-9807
struction	-9808
▁Einstein	-9809
▁Harrison	-9810
▁Nicholas	-9811
▁acoustic	-9812
▁charging	-9813
▁combined	-9814
▁connects	-9815
▁crossing	-9816
▁decrease	-9817
▁discount	-9818
▁dominant	-9819
▁employed	-9820
▁featured	-9821
▁festival	-9822
▁holidays	-9823
▁machines	-9824
▁murdered	-9825
▁offering	-9826
▁opinions	-9827
▁superior	-9828
▁terminal	-9829
▁tracking	-9830
▁unemploy	-9831
▁Marketing	-9832
▁committed	-9833
▁everybody	-9834
▁explained	-9835
▁messenger	-9836
▁reasoning	-9837
▁softwares	-9838
▁sponsored	-9839
▁Psychology	-9840
▁architects	-9841
▁percentile	-9842
▁permission	-9843
▁recognized	-9844
▁sufficient	-9845
▁weaknesses	-9846
▁discussions	-9847
▁institution	-9848
▁instruments	-9849
▁perspective	-9850
▁subscribers	-9851
▁commissioned	-9852
▁performances	-9853
▁controversial	-9854
▁differentiate	-9855
BO	-9856
GA	-9857
HC	-9858
IF	-9859
LS	-9860
ho	-9861
lr	-9862
▁×	-9863
▁”	-9864
CAA	-9865
afs	-9866
azi	-9867
gow	-9868
hea	-9869
iar	-9870
iel	-9871
igo	-9872
izz	-9873
omo	-9874
rez	-9875
ubs	-9876
umn	-9877
uto	-9878
uzz	-9879
▁CL	-9880
▁Ib	-9881
▁Lt	-9882
▁Og	-9883
▁PA	-9884
▁UC	-9885
▁cm	-9886
▁lo	-9887
ashi	-9888
asis	-9889
burn	-9890
cery	-9891
core	-9892
erto	-9893
hips	-9894
inea	-9895
inem	-9896
isco	-9897
isen	-9898
mart	-9899
moon	-9900
odox	-9901
ogue	-9902
omme	-9903
opic	-9904
opol	-9905
oque	-9906
orph	-9907
rett	-9908
roit	-9909
▁Bed	-9910
▁Bri	-9911
▁Est	-9912
▁Hem	-9913
▁Hud	-9914
▁Hum	-9915
▁Kal	-9916
▁Kam	-9917
▁Les	-9918
▁Rem	-9919
▁Sav	-9920
▁UFO	-9921
▁VIT	-9922
▁Vin	-9923
▁hun	-9924
▁pic	-9925
▁sup	-9926
▁www	-9927
agers	-9928
andra	-9929
angal	-9930
ateur	-9931
atore	-9932
atric	-9933
child	-9934
empty	-9935
ijing	-9936
month	-9937
omous	-9938
otton	-9939
owned	-9940
tered	-9941
ultan	-9942
ushed	-9943
▁1850	-9944
▁1871	-9945
▁1907	-9946
▁1912	-9947
▁1924	-9948
▁1925	-9949
▁1928	-9950
▁1937	-9951
▁1946	-9952
▁Back	-9953
▁Bart	-9954
▁Bath	-9955
▁Buck	-9956
▁DSLR	-9957
▁Gian	-9958
▁Herm	-9959
▁ISRO	-9960
▁Jain	-9961
▁Lanc	-9962
▁Last	-9963
▁NCAA	-9964
▁Peak	-9965
▁Vale	-9966
▁Vimy	-9967
▁WWII	-9968
▁bear	-9969
▁bind	-9970
▁bite	-9971
▁boil	-9972
▁cuis	-9973
▁epid	-9974
▁exec	-9975
▁fold	-9976
▁fort	-9977
▁lany	-9978
▁lens	-9979
▁nurs	-9980
▁orig	-9981
▁plas	-9982
▁pref	-9983
▁prok	-9984
angers	-9985
apping	-9986
asthan	-9987
illery	-9988
iously	-9989
ivered	-9990
levard	-9991
ourney	-9992
uition	-9993
utical	-9994
wegian	-9995
▁Aaron	-9996
▁Gates	-9997
▁Mayor	-9998
▁Monte	-9999
▁Nancy	-10000
▁Pearl	-10001
▁Perth	-10002
▁Pitts	-10003
▁Polit	-10004
▁Speed	-10005
▁Venus	-10006
▁camps	-10007
▁conqu	-10008
▁delhi	-10009
▁divid	-10010
▁erect	-10011
▁grown	-10012
▁illeg	-10013
▁links	-10014
▁ready	-10015
▁reper	-10016
▁roads	-10017
▁schem	-10018
▁suppl	-10019
▁sweat	-10020
▁taxes	-10021
actress	-10022
fecture	-10023
otherap	-10024
ulative	-10025
▁Butler	-10026
▁Collie	-10027
▁Darwin	-10028
▁Hudson	-10029
▁Louise	-10030
▁Madhya	-10031
▁Marine	-10032
▁Mistry	-10033
▁Murray	-10034
▁Orange	-10035
▁Puerto	-10036
▁Review	-10037
▁Somers	-10038
▁Square	-10039
▁Uganda	-10040
▁assets	-10041
▁begins	-10042
▁beings	-10043
▁beyond	-10044
▁cowork	-10045
▁enters	-10046
▁fabric	-10047
▁gainer	-10048
▁hamlet	-10049
▁ignore	-10050
▁minute	-10051
▁overth	-10052
▁parish	-10053
▁pieces	-10054
▁portra	-10055
▁relate	-10056
▁revers	-10057
▁slower	-10058
▁smooth	-10059
▁stayed	-10060
▁tempor	-10061
▁valley	-10062
▁verbal	-10063
chanical	-10064
▁Beijing	-10065
▁Detroit	-10066
▁Edition	-10067
▁Glasgow	-10068
▁Roberts	-10069
▁Village	-10070
▁causing	-10071
▁chronic	-10072
▁deposit	-10073
▁envelop	-10074
▁females	-10075
▁hundred	-10076
▁integer	-10077
▁passing	-10078
▁pharmac	-10079
▁posting	-10080
▁seeking	-10081
▁Arkansas	-10082
▁Nebraska	-10083
▁Sanskrit	-10084
▁anywhere	-10085
▁bacteria	-10086
▁capacity	-10087
▁clinical	-10088
▁heritage	-10089
▁hydrogen	-10090
▁intermed	-10091
▁lifetime	-10092
▁memorize	-10093
▁policies	-10094
▁remotely	-10095
▁rotating	-10096
▁secretly	-10097
▁sequence	-10098
▁settlers	-10099
▁violence	-10100
▁Universal	-10101
▁activated	-10102
▁bollywood	-10103
▁delivered	-10104
▁elsewhere	-10105
▁identical	-10106
▁incumbent	-10107
▁listening	-10108
▁memorable	-10109
▁renewable	-10110
▁sentences	-10111
▁societies	-10112
▁suggested	-10113
▁ambassador	-10114
▁beneficial	-10115
▁discussion	-10116
▁distracted	-10117
▁medication	-10118
▁retirement	-10119
▁strengthen	-10120
▁collections	-10121
▁conditioner	-10122
▁implemented	-10123
▁psychopaths	-10124
▁resignation	-10125
▁Conservative	-10126
▁occasionally	-10127
▁supernatural	-10128
▁Demonetization	-10129
▁transformation	-10130
).	-10131
PN	-10132
RT	-10133
▁u	-10134
bar	-10135
bul	-10136
ibl	-10137
isd	-10138
jee	-10139
net	-10140
ori	-10141
pie	-10142
see	-10143
uts	-10144
▁43	-10145
▁6?	-10146
▁CN	-10147
▁HA	-10148
▁MI	-10149
▁MP	-10150
▁RA	-10151
▁Sr	-10152
▁UI	-10153
▁Vo	-10154
▁Wa	-10155
adav	-10156
affe	-10157
agan	-10158
aism	-10159
aton	-10160
bery	-10161
camp	-10162
cede	-10163
enna	-10164
gins	-10165
iffs	-10166
iral	-10167
leep	-10168
lets	-10169
long	-10170
perm	-10171
rary	-10172
rens	-10173
ront	-10174
rypt	-10175
sein	-10176
sour	-10177
▁Alt	-10178
▁Cla	-10179
▁Flo	-10180
▁Gov	-10181
▁Jos	-10182
▁Koh	-10183
▁LED	-10184
▁Lok	-10185
▁Low	-10186
▁Muk	-10187
▁NET	-10188
▁Tam	-10189
▁Ted	-10190
▁Tog	-10191
▁Yam	-10192
▁ecc	-10193
▁euk	-10194
▁gre	-10195
▁hop	-10196
▁lob	-10197
▁pip	-10198
▁spy	-10199
▁tie	-10200
▁unw	-10201
▁yen	-10202
India	-10203
anged	-10204
backs	-10205
eland	-10206
esome	-10207
eters	-10208
ether	-10209
etics	-10210
oding	-10211
owski	-10212
point	-10213
uster	-10214
▁2019	-10215
▁Cork	-10216
▁Disc	-10217
▁Fant	-10218
▁Gonz	-10219
▁Horn	-10220
▁Kaif	-10221
▁Meth	-10222
▁Stra	-10223
▁Visa	-10224
▁Wind	-10225
▁Your	-10226
▁ants	-10227
▁bats	-10228
▁beef	-10229
▁cham	-10230
▁hits	-10231
▁knee	-10232
▁mamm	-10233
▁mode	-10234
▁pier	-10235
▁publ	-10236
▁stim	-10237
▁tier	-10238
bishop	-10239
celona	-10240
ipkart	-10241
ometer	-10242
rolled	-10243
▁Chile	-10244
▁Craig	-10245
▁Devon	-10246
▁Laser	-10247
▁Patel	-10248
▁Paytm	-10249
▁Pomer	-10250
▁Sales	-10251
▁Yadav	-10252
▁array	-10253
▁blame	-10254
▁grows	-10255
▁humid	-10256
▁monet	-10257
▁noise	-10258
▁noted	-10259
▁pages	-10260
▁quiet	-10261
▁rooms	-10262
▁unatt	-10263
igenous	-10264
jection	-10265
ractive	-10266
vention	-10267
▁50,000	-10268
▁Energy	-10269
▁Harold	-10270
▁Hockey	-10271
▁Samuel	-10272
▁Spirit	-10273
▁Studio	-10274
▁Thanks	-10275
▁Tinder	-10276
▁Ukrain	-10277
▁alumin	-10278
▁apolog	-10279
▁archae	-10280
▁authen	-10281
▁autobi	-10282
▁behavi	-10283
▁borrow	-10284
▁brings	-10285
▁casual	-10286
▁compat	-10287
▁effort	-10288
▁fruits	-10289
▁hosted	-10290
▁multip	-10291
▁petrol	-10292
▁seeing	-10293
▁smoked	-10294
▁stored	-10295
▁themes	-10296
▁thesis	-10297
▁toward	-10298
▁truths	-10299
▁versus	-10300
▁welcom	-10301
American	-10302
alalitha	-10303
▁Alabama	-10304
▁Belgian	-10305
▁Heights	-10306
▁Judaism	-10307
▁Several	-10308
▁abusive	-10309
▁anticip	-10310
▁assault	-10311
▁beating	-10312
▁chromos	-10313
▁confess	-10314
▁dentist	-10315
▁diamond	-10316
▁diocese	-10317
▁entropy	-10318
▁extinct	-10319
▁holiday	-10320
▁invaded	-10321
▁marking	-10322
▁minimal	-10323
▁neither	-10324
▁sisters	-10325
▁suspect	-10326
▁swallow	-10327
▁totally	-10328
▁villain	-10329
▁Jennifer	-10330
▁Richmond	-10331
▁achieved	-10332
▁attitude	-10333
▁bachelor	-10334
▁believes	-10335
▁bisexual	-10336
▁calculus	-10337
▁champion	-10338
▁circular	-10339
▁concerns	-10340
▁confused	-10341
▁invasion	-10342
▁keyboard	-10343
▁marketed	-10344
▁meanings	-10345
▁priority	-10346
▁refriger	-10347
iterranean	-10348
ologically	-10349
▁Barcelona	-10350
▁Halloween	-10351
▁Norwegian	-10352
▁commander	-10353
▁consumers	-10354
▁cricketer	-10355
▁discharge	-10356
▁ministers	-10357
▁objective	-10358
▁protected	-10359
▁radiation	-10360
▁residence	-10361
▁Lieutenant	-10362
▁Pakistanis	-10363
▁graduating	-10364
▁helicopter	-10365
▁polynomial	-10366
▁thoroughly	-10367
▁Jayalalitha	-10368
▁anonymously	-10369
▁eligibility	-10370
▁smartphones	-10371
▁surrounding	-10372
▁assassinated	-10373
▁instrumental	-10374
▁intersection	-10375
▁psychiatrist	-10376
▁transactions	-10377
▁manufacturers	-10378
-5	-10379
OU	-10380
TI	-10381
oj	-10382
ré	-10383
uv	-10384
"",	-10385
ads	-10386
aze	-10387
eto	-10388
iki	-10389
olt	-10390
pez	-10391
vas	-10392
▁5?	-10393
▁GR	-10394
▁Ny	-10395
▁Qa	-10396
▁SO	-10397
▁ow	-10398
asan	-10399
asts	-10400
atra	-10401
ayan	-10402
elli	-10403
eric	-10404
iffe	-10405
inos	-10406
ipal	-10407
iper	-10408
keys	-10409
odge	-10410
oida	-10411
ović	-10412
rend	-10413
stud	-10414
umed	-10415
▁"""	-10416
▁64-	-10417
▁Akh	-10418
▁Aud	-10419
▁Bot	-10420
▁Ele	-10421
▁Fel	-10422
▁Guy	-10423
▁IES	-10424
▁Ian	-10425
▁Isa	-10426
▁Lat	-10427
▁McD	-10428
▁Rot	-10429
▁Suz	-10430
▁Sym	-10431
▁Tas	-10432
▁bag	-10433
▁bio	-10434
▁cav	-10435
▁jet	-10436
▁lip	-10437
▁pod	-10438
▁rif	-10439
alion	-10440
chron	-10441
duced	-10442
eling	-10443
idesp	-10444
igarh	-10445
mates	-10446
uters	-10447
▁1858	-10448
▁1885	-10449
▁1904	-10450
▁1929	-10451
▁1931	-10452
▁1944	-10453
▁1948	-10454
▁1959	-10455
▁ADHD	-10456
▁Ajay	-10457
▁Bagh	-10458
▁Bert	-10459
▁Burn	-10460
▁Ches	-10461
▁Clay	-10462
▁Conn	-10463
▁Dund	-10464
▁Emma	-10465
▁Even	-10466
▁Fund	-10467
▁Garr	-10468
▁Hans	-10469
▁Hugh	-10470
▁IIMs	-10471
▁IITs	-10472
▁Kind	-10473
▁Kirk	-10474
▁Laur	-10475
▁Mans	-10476
▁Midd	-10477
▁Nazi	-10478
▁Norm	-10479
▁Rick	-10480
▁Shia	-10481
▁Synd	-10482
▁Walt	-10483
▁WiFi	-10484
▁Yout	-10485
▁acts	-10486
▁bark	-10487
▁bulb	-10488
▁dont	-10489
▁ejac	-10490
▁emig	-10491
▁fuck	-10492
▁isol	-10493
▁leaf	-10494
▁nick	-10495
▁ride	-10496
▁span	-10497
▁trig	-10498
▁tube	-10499
▁wasn	-10500
Border	-10501
iative	-10502
nowned	-10503
orient	-10504
ricted	-10505
strong	-10506
▁2,000	-10507
▁Colle	-10508
▁Heart	-10509
▁Imper	-10510
▁Noida	-10511
▁Phone	-10512
▁Ralph	-10513
▁Range	-10514
▁Stack	-10515
▁Terry	-10516
▁Wayne	-10517
▁antib	-10518
▁disag	-10519
▁fired	-10520
▁flirt	-10521
▁fraud	-10522
▁guard	-10523
▁hired	-10524
▁maker	-10525
▁opera	-10526
▁pseud	-10527
▁reven	-10528
▁schiz	-10529
▁stone	-10530
▁teens	-10531
▁usern	-10532
▁voter	-10533
essions	-10534
holders	-10535
ication	-10536
married	-10537
western	-10538
▁Bureau	-10539
▁Global	-10540
▁Sultan	-10541
▁Tasman	-10542
▁Turner	-10543
▁Walker	-10544
▁anthem	-10545
▁assess	-10546
▁closer	-10547
▁courts	-10548
▁driven	-10549
▁esteem	-10550
▁filled	-10551
▁frozen	-10552
▁gender	-10553
▁genius	-10554
▁headed	-10555
▁hiring	-10556
▁inject	-10557
▁plasma	-10558
▁rarely	-10559
▁resort	-10560
▁rocket	-10561
▁sounds	-10562
▁stains	-10563
▁talent	-10564
▁throne	-10565
▁typing	-10566
▁united	-10567
▁weapon	-10568
▁wholes	-10569
▁widesp	-10570
▁wooden	-10571
imbatore	-10572
▁Bernard	-10573
▁Finance	-10574
▁Instead	-10575
▁Journal	-10576
▁Limited	-10577
▁Phoenix	-10578
▁Primary	-10579
▁academy	-10580
▁acquire	-10581
▁affects	-10582
▁besides	-10583
▁careers	-10584
▁contest	-10585
▁deactiv	-10586
▁diagram	-10587
▁enlight	-10588
▁hackers	-10589
▁hurting	-10590
▁kilomet	-10591
▁kingdom	-10592
▁notable	-10593
▁privile	-10594
▁psychic	-10595
▁rapidly	-10596
▁ridicul	-10597
▁staying	-10598
▁strange	-10599
▁therapy	-10600
▁Advanced	-10601
▁Augustus	-10602
▁Austrian	-10603
▁Junction	-10604
▁LinkedIn	-10605
▁Mandarin	-10606
▁Superman	-10607
▁abortion	-10608
▁abstract	-10609
▁airlines	-10610
▁alphabet	-10611
▁asteroid	-10612
▁comedian	-10613
▁compiler	-10614
▁detected	-10615
▁diplomat	-10616
▁dreaming	-10617
▁earliest	-10618
▁lanyards	-10619
▁laziness	-10620
▁marathon	-10621
▁proposal	-10622
▁regiment	-10623
▁renowned	-10624
▁shipping	-10625
▁stopping	-10626
▁suffered	-10627
▁survival	-10628
▁suspects	-10629
▁tomorrow	-10630
▁topology	-10631
▁torrents	-10632
▁tropical	-10633
▁variance	-10634
girlfriend	-10635
▁Accenture	-10636
▁Armstrong	-10637
▁Minecraft	-10638
▁Rajasthan	-10639
▁broadband	-10640
▁cognitive	-10641
▁compounds	-10642
▁continues	-10643
▁converted	-10644
▁defensive	-10645
▁designers	-10646
▁disappear	-10647
▁disorders	-10648
▁eccentric	-10649
▁graduates	-10650
▁intention	-10651
▁musicians	-10652
▁Enterprise	-10653
▁aggressive	-10654
▁atmosphere	-10655
▁commitment	-10656
▁committing	-10657
▁dictionary	-10658
▁engagement	-10659
▁reasonable	-10660
▁subsidiary	-10661
▁transplant	-10662
▁widespread	-10663
▁Development	-10664
▁Programming	-10665
▁Renaissance	-10666
▁accompanied	-10667
▁comparative	-10668
▁composition	-10669
▁prokaryotic	-10670
▁recruitment	-10671
▁Christianity	-10672
▁achievements	-10673
▁conventional	-10674
▁expectations	-10675
▁northeastern	-10676
▁organisation	-10677
▁Mediterranean	-10678
▁knowledgeable	-10679
-0	-10680
16	-10681
26	-10682
82	-10683
Le	-10684
VA	-10685
]?	-10686
si	-10687
vi	-10688
zo	-10689
▁>	-10690
-10	-10691
alm	-10692
asm	-10693
atc	-10694
bus	-10695
hma	-10696
hum	-10697
isp	-10698
osl	-10699
oto	-10700
ovs	-10701
pad	-10702
pes	-10703
qrt	-10704
▁74	-10705
▁9/	-10706
▁Bj	-10707
▁CC	-10708
▁Hi	-10709
▁NS	-10710
▁SX	-10711
▁Ts	-10712
▁ho	-10713
▁mm	-10714
avan	-10715
eman	-10716
grad	-10717
guns	-10718
ilog	-10719
inue	-10720
kind	-10721
lett	-10722
opia	-10723
oura	-10724
ovak	-10725
ruff	-10726
uate	-10727
xide	-10728
▁155	-10729
▁30?	-10730
▁Bis	-10731
▁Eug	-10732
▁Hob	-10733
▁Nav	-10734
▁Ref	-10735
▁Rou	-10736
▁Set	-10737
▁Stu	-10738
▁Tun	-10739
▁Wag	-10740
▁Wol	-10741
▁fib	-10742
▁kne	-10743
▁tab	-10744
▁vul	-10745
amine	-10746
ample	-10747
anasi	-10748
anche	-10749
heads	-10750
iates	-10751
ocide	-10752
ogram	-10753
orsal	-10754
quest	-10755
rator	-10756
uddin	-10757
visor	-10758
woman	-10759
▁CPEC	-10760
▁Craw	-10761
▁Drum	-10762
▁Garc	-10763
▁Hamp	-10764
▁Hell	-10765
▁Hunt	-10766
▁Mall	-10767
▁Pent	-10768
▁Roll	-10769
▁Thor	-10770
▁Vide	-10771
▁View	-10772
▁Whom	-10773
▁beer	-10774
▁ends	-10775
▁folk	-10776
▁guar	-10777
▁horm	-10778
▁inex	-10779
▁jury	-10780
▁nail	-10781
▁prox	-10782
▁puzz	-10783
▁scan	-10784
▁snee	-10785
▁summ	-10786
▁surn	-10787
▁tort	-10788
▁toug	-10789
▁trou	-10790
▁tunn	-10791
▁unre	-10792
▁upon	-10793
▁wage	-10794
anagar	-10795
ferent	-10796
iences	-10797
inator	-10798
orical	-10799
ospace	-10800
ounter	-10801
overty	-10802
roleum	-10803
sworth	-10804
thodox	-10805
unning	-10806
urated	-10807
▁15000	-10808
▁Coach	-10809
▁Early	-10810
▁Isaac	-10811
▁Libya	-10812
▁Lucas	-10813
▁Marie	-10814
▁Moroc	-10815
▁Nazis	-10816
▁Order	-10817
▁Peace	-10818
▁Pedro	-10819
▁Pence	-10820
▁Rupee	-10821
▁Shiva	-10822
▁Short	-10823
▁Stark	-10824
▁Stone	-10825
▁Touch	-10826
▁Treat	-10827
▁Upper	-10828
▁alike	-10829
▁armed	-10830
▁bless	-10831
▁boats	-10832
▁camer	-10833
▁crypt	-10834
▁fills	-10835
▁grade	-10836
▁incom	-10837
▁laugh	-10838
▁lists	-10839
▁lover	-10840
▁manga	-10841
▁manus	-10842
▁merge	-10843
▁moons	-10844
▁moves	-10845
▁recyc	-10846
▁shops	-10847
▁silly	-10848
▁sperm	-10849
▁stiff	-10850
▁stuck	-10851
▁toler	-10852
▁tower	-10853
▁veter	-10854
angular	-10855
embered	-10856
founder	-10857
igation	-10858
issions	-10859
rection	-10860
ructure	-10861
▁Alfred	-10862
▁Autism	-10863
▁Carlos	-10864
▁Dakota	-10865
▁Golden	-10866
▁Greeks	-10867
▁Hindus	-10868
▁Johann	-10869
▁Manuel	-10870
▁Member	-10871
▁Monroe	-10872
▁Muller	-10873
▁Murphy	-10874
▁Nelson	-10875
▁Parish	-10876
▁Rodrig	-10877
▁Rupees	-10878
▁Teresa	-10879
▁absent	-10880
▁denied	-10881
▁facial	-10882
▁filing	-10883
▁fluctu	-10884
▁govern	-10885
▁hurric	-10886
▁interc	-10887
▁landed	-10888
▁legend	-10889
▁mentor	-10890
▁minded	-10891
▁phrase	-10892
▁remote	-10893
▁sailed	-10894
▁scored	-10895
▁stones	-10896
▁twitch	-10897
▁upvote	-10898
oriented	-10899
otherapy	-10900
▁Arduino	-10901
▁Armenia	-10902
▁Bennett	-10903
▁Capital	-10904
▁Colonel	-10905
▁Product	-10906
▁Reserve	-10907
▁Verizon	-10908
▁awesome	-10909
▁camping	-10910
▁cuisine	-10911
▁defines	-10912
▁explore	-10913
▁grocery	-10914
▁manages	-10915
▁nominee	-10916
▁observe	-10917
▁outcome	-10918
▁poverty	-10919
▁putting	-10920
▁qualify	-10921
▁schedul	-10922
▁targets	-10923
▁volunte	-10924
aceutical	-10925
▁Agricult	-10926
▁Flipkart	-10927
▁Infantry	-10928
▁LaserJet	-10929
▁Medicine	-10930
▁Partners	-10931
▁Pictures	-10932
▁covalent	-10933
▁distinct	-10934
▁divorced	-10935
▁earphone	-10936
▁entitled	-10937
▁geometry	-10938
▁inferior	-10939
▁shotguns	-10940
▁suicidal	-10941
▁tutorial	-10942
▁Assistant	-10943
▁Electoral	-10944
▁Ukrainian	-10945
▁abandoned	-10946
▁actresses	-10947
▁airplanes	-10948
▁authentic	-10949
▁concluded	-10950
▁evaluated	-10951
▁extensive	-10952
▁hollywood	-10953
▁honeymoon	-10954
▁installed	-10955
▁physicist	-10956
▁providers	-10957
▁standards	-10958
▁surviving	-10959
▁translate	-10960
▁Archbishop	-10961
▁Presidency	-10962
▁continuing	-10963
▁foundation	-10964
▁indigenous	-10965
▁manuscript	-10966
▁procedural	-10967
▁relatively	-10968
▁remembered	-10969
▁repeatedly	-10970
▁ridiculous	-10971
▁situations	-10972
▁withdrawal	-10973
▁Independent	-10974
▁accessories	-10975
▁circulation	-10976
▁constructed	-10977
▁destination	-10978
▁freelancing	-10979
▁photographs	-10980
▁requirement	-10981
▁conveyancing	-10982
▁intermediate	-10983
▁negotiations	-10984
▁quantitative	-10985
▁representing	-10986
▁unattractive	-10987
▁Congressional	-10988
▁denominations	-10989
▁misconceptions	-10990
▁professionally	-10991
.)	-10992
23	-10993
??	-10994
HA	-10995
OL	-10996
TP	-10997
cr	-10998
hr	-10999
hy	-11000
sa	-11001
zz	-11002
▁<	-11003
-18	-11004
TUS	-11005
aja	-11006
aug	-11007
bel	-11008
eli	-11009
fan	-11010
ido	-11011
iev	-11012
ige	-11013
ilo	-11014
imo	-11015
iry	-11016
nik	-11017
ovo	-11018
pei	-11019
ppo	-11020
ugu	-11021
uki	-11022
▁2,	-11023
▁47	-11024
▁CH	-11025
▁DM	-11026
▁Ec	-11027
▁Ku	-11028
▁MO	-11029
▁SI	-11030
agar	-11031
anic	-11032
aris	-11033
arsh	-11034
arth	-11035
bies	-11036
call	-11037
cuss	-11038
door	-11039
enda	-11040
ener	-11041
etch	-11042
fire	-11043
gans	-11044
hero	-11045
ista	-11046
izer	-11047
king	-11048
omot	-11049
onda	-11050
osys	-11051
unal	-11052
▁ABC	-11053
▁Aff	-11054
▁Avg	-11055
▁Cre	-11056
▁Fun	-11057
▁GPA	-11058
▁Ger	-11059
▁HTC	-11060
▁Hut	-11061
▁Inn	-11062
▁Jag	-11063
▁Kon	-11064
▁Mul	-11065
▁NRA	-11066
▁Ric	-11067
▁Teh	-11068
▁Vic	-11069
▁YOU	-11070
▁aid	-11071
▁bik	-11072
▁dot	-11073
▁fer	-11074
▁idi	-11075
▁nut	-11076
▁orb	-11077
▁ped	-11078
amous	-11079
ashed	-11080
assan	-11081
avian	-11082
class	-11083
etown	-11084
hurst	-11085
icing	-11086
inals	-11087
inent	-11088
keley	-11089
ocate	-11090
oeing	-11091
onian	-11092
ramer	-11093
ridge	-11094
ropic	-11095
ulite	-11096
▁1889	-11097
▁1901	-11098
▁1906	-11099
▁1910	-11100
▁1915	-11101
▁1939	-11102
▁Answ	-11103
▁Arts	-11104
▁Batt	-11105
▁Bram	-11106
▁Cook	-11107
▁Cred	-11108
▁Epis	-11109
▁Gard	-11110
▁Glen	-11111
▁Gray	-11112
▁Grey	-11113
▁Hann	-11114
▁Lucy	-11115
▁Luis	-11116
▁Luke	-11117
▁Mean	-11118
▁Mora	-11119
▁Neil	-11120
▁Term	-11121
▁Thir	-11122
▁Trib	-11123
▁Vinc	-11124
▁bake	-11125
▁bugs	-11126
▁dand	-11127
▁ears	-11128
▁feat	-11129
▁frag	-11130
▁gods	-11131
▁hung	-11132
▁lane	-11133
▁lung	-11134
▁pard	-11135
▁pean	-11136
▁rear	-11137
▁spac	-11138
▁twin	-11139
▁ward	-11140
▁yoga	-11141
Korean	-11142
anagan	-11143
ariant	-11144
arring	-11145
ochond	-11146
ovable	-11147
thesis	-11148
▁Alger	-11149
▁Costa	-11150
▁Fight	-11151
▁Final	-11152
▁Janet	-11153
▁Jerry	-11154
▁Keith	-11155
▁Leafs	-11156
▁Liver	-11157
▁Local	-11158
▁Model	-11159
▁Nicol	-11160
▁POTUS	-11161
▁Rogue	-11162
▁Seven	-11163
▁Somme	-11164
▁Start	-11165
▁Third	-11166
▁Treas	-11167
▁alarm	-11168
▁arrog	-11169
▁audit	-11170
▁badly	-11171
▁codes	-11172
▁compr	-11173
▁delay	-11174
▁depth	-11175
▁deton	-11176
▁doors	-11177
▁fewer	-11178
▁flood	-11179
▁input	-11180
▁lingu	-11181
▁loans	-11182
▁loyal	-11183
▁lucid	-11184
▁obser	-11185
▁quora	-11186
▁rated	-11187
▁rings	-11188
▁stops	-11189
▁subst	-11190
▁tries	-11191
English	-11192
regular	-11193
tenance	-11194
testant	-11195
written	-11196
zheimer	-11197
▁Aleppo	-11198
▁Anders	-11199
▁Biddle	-11200
▁Canton	-11201
▁Carrie	-11202
▁Geneva	-11203
▁Hadoop	-11204
▁Napole	-11205
▁Salman	-11206
▁Shares	-11207
▁Sharma	-11208
▁Sloven	-11209
▁admire	-11210
▁athlet	-11211
▁beauty	-11212
▁bleach	-11213
▁bottom	-11214
▁bullet	-11215
▁burned	-11216
▁conven	-11217
▁evolve	-11218
▁extend	-11219
▁funded	-11220
▁insane	-11221
▁latter	-11222
▁learnt	-11223
▁massac	-11224
▁mature	-11225
▁narrow	-11226
▁pimple	-11227
▁radius	-11228
▁recept	-11229
▁sample	-11230
▁scores	-11231
▁sniper	-11232
▁staged	-11233
▁string	-11234
▁tragic	-11235
▁vagina	-11236
▁visits	-11237
▁window	-11238
▁Assange	-11239
▁Brigade	-11240
▁Denmark	-11241
▁Frances	-11242
▁Freedom	-11243
▁Gurgaon	-11244
▁Youtube	-11245
▁absence	-11246
▁boiling	-11247
▁burning	-11248
▁cheated	-11249
▁closely	-11250
▁colours	-11251
▁comprom	-11252
▁confirm	-11253
▁cracked	-11254
▁demonst	-11255
▁farming	-11256
▁hangout	-11257
▁herself	-11258
▁journey	-11259
▁kitchen	-11260
▁lawsuit	-11261
▁lottery	-11262
▁mineral	-11263
▁nervous	-11264
▁origins	-11265
▁plaster	-11266
▁portals	-11267
▁reserve	-11268
▁revised	-11269
▁roughly	-11270
▁servers	-11271
▁session	-11272
▁sexiest	-11273
▁sitting	-11274
▁surname	-11275
bitration	-11276
forcement	-11277
▁Buddhist	-11278
▁Caroline	-11279
▁Croatian	-11280
▁Engineer	-11281
▁Georgian	-11282
▁Israelis	-11283
▁Kingston	-11284
▁Michelle	-11285
▁Question	-11286
▁Railways	-11287
▁Somerset	-11288
▁Tasmania	-11289
▁Triangle	-11290
▁Whatsapp	-11291
▁activist	-11292
▁cellular	-11293
▁consolid	-11294
▁dandruff	-11295
▁erectile	-11296
▁feedback	-11297
▁freshman	-11298
▁googling	-11299
▁imprison	-11300
▁managers	-11301
▁memories	-11302
▁millions	-11303
▁mosquito	-11304
▁oriented	-11305
▁packages	-11306
▁pleasure	-11307
▁sponsors	-11308
▁suggests	-11309
▁surprise	-11310
▁touching	-11311
▁username	-11312
▁Boulevard	-11313
▁Community	-11314
▁Louisiana	-11315
▁Victorian	-11316
▁abilities	-11317
▁attempted	-11318
▁cellulite	-11319
▁departure	-11320
▁dependent	-11321
▁freelance	-11322
▁increases	-11323
▁landscape	-11324
▁mitochond	-11325
▁mountains	-11326
▁perfectly	-11327
▁premiered	-11328
▁providing	-11329
▁provision	-11330
▁purchased	-11331
▁recovered	-11332
▁uncertain	-11333
▁unmarried	-11334
▁Coimbatore	-11335
▁Protestant	-11336
▁accountant	-11337
▁automation	-11338
▁concentric	-11339
▁demonetise	-11340
▁diplomatic	-11341
▁eukaryotic	-11342
▁securities	-11343
▁Mahabharata	-11344
▁anticipated	-11345
▁association	-11346
▁consumption	-11347
▁nationalism	-11348
▁progressive	-11349
▁recognition	-11350
▁respiration	-11351
▁spokeswoman	-11352
▁terrestrial	-11353
▁transformer	-11354
▁consistently	-11355
▁contractions	-11356
▁contributing	-11357
▁intellectual	-11358
▁manufacturer	-11359
▁narcissistic	-11360
▁temperatures	-11361
▁investigating	-11362
▁Communications	-11363
#?	-11364
ML	-11365
PM	-11366
Qa	-11367
RP	-11368
^2	-11369
gg	-11370
kg	-11371
mo	-11372
Con	-11373
Who	-11374
abi	-11375
anj	-11376
ele	-11377
far	-11378
iah	-11379
nan	-11380
ohn	-11381
orf	-11382
org	-11383
uct	-11384
urt	-11385
wer	-11386
why	-11387
zes	-11388
▁42	-11389
▁57	-11390
▁58	-11391
▁DI	-11392
▁Fo	-11393
▁Ji	-11394
▁Ms	-11395
▁NC	-11396
▁Ps	-11397
▁ST	-11398
▁Um	-11399
▁VC	-11400
▁Ye	-11401
▁au	-11402
▁py	-11403
▁ri	-11404
▁tv	-11405
-201	-11406
airo	-11407
aman	-11408
ando	-11409
atma	-11410
avas	-11411
chid	-11412
cine	-11413
erts	-11414
fish	-11415
ithm	-11416
ivan	-11417
olph	-11418
omed	-11419
oths	-11420
serv	-11421
▁10-	-11422
▁600	-11423
▁BSc	-11424
▁Bac	-11425
▁Cir	-11426
▁Cob	-11427
▁Dod	-11428
▁Dra	-11429
▁Ext	-11430
▁Hal	-11431
▁Heb	-11432
▁Hug	-11433
▁Kaz	-11434
▁Leo	-11435
▁Maj	-11436
▁Mes	-11437
▁Sin	-11438
▁VPN	-11439
▁bay	-11440
▁cul	-11441
▁ego	-11442
▁gam	-11443
▁gor	-11444
▁gum	-11445
▁lun	-11446
▁nit	-11447
▁sor	-11448
▁vit	-11449
▁von	-11450
acies	-11451
amics	-11452
andin	-11453
atics	-11454
cause	-11455
enter	-11456
eries	-11457
ieval	-11458
itate	-11459
omers	-11460
onaut	-11461
osure	-11462
rency	-11463
stood	-11464
works	-11465
▁Barr	-11466
▁Bing	-11467
▁Bond	-11468
▁Cult	-11469
▁Each	-11470
▁Emer	-11471
▁Host	-11472
▁Luck	-11473
▁Mini	-11474
▁Must	-11475
▁Near	-11476
▁Pink	-11477
▁Rest	-11478
▁SARS	-11479
▁Sara	-11480
▁Scar	-11481
▁Sull	-11482
▁Wolf	-11483
▁boat	-11484
▁caps	-11485
▁emph	-11486
▁evac	-11487
▁incl	-11488
▁keys	-11489
▁lots	-11490
▁mock	-11491
▁pest	-11492
▁slim	-11493
▁unst	-11494
▁vast	-11495
▁wolf	-11496
anghai	-11497
escope	-11498
estone	-11499
itched	-11500
master	-11501
oosing	-11502
osaurs	-11503
requis	-11504
school	-11505
teenth	-11506
uccess	-11507
usions	-11508
▁Among	-11509
▁Baron	-11510
▁Bobby	-11511
▁Chuck	-11512
▁Cloud	-11513
▁Cuban	-11514
▁Delta	-11515
▁Glass	-11516
▁Humph	-11517
▁Laden	-11518
▁Lakes	-11519
▁Manor	-11520
▁Movie	-11521
▁Nikol	-11522
▁Produ	-11523
▁Sachs	-11524
▁Steel	-11525
▁Still	-11526
▁brick	-11527
▁cable	-11528
▁coinc	-11529
▁dates	-11530
▁guide	-11531
▁hobby	-11532
▁liked	-11533
▁males	-11534
▁metab	-11535
▁polls	-11536
▁reply	-11537
▁shore	-11538
▁surge	-11539
▁versa	-11540
▁walls	-11541
▁wings	-11542
▁witch	-11543
▁wrest	-11544
▁zones	-11545
▁₹2000	-11546
aughter	-11547
fiction	-11548
intendo	-11549
uminati	-11550
▁Advent	-11551
▁BITSAT	-11552
▁Celtic	-11553
▁Family	-11554
▁Harbor	-11555
▁Hilary	-11556
▁Lahore	-11557
▁Mother	-11558
▁Munich	-11559
▁Naruto	-11560
▁Native	-11561
▁Santos	-11562
▁Stuart	-11563
▁Territ	-11564
▁asleep	-11565
▁attain	-11566
▁bother	-11567
▁bright	-11568
▁cinema	-11569
▁condom	-11570
▁config	-11571
▁cruise	-11572
▁earned	-11573
▁escort	-11574
▁floors	-11575
▁golden	-11576
▁incest	-11577
▁injury	-11578
▁jurisd	-11579
▁ladies	-11580
▁nutrit	-11581
▁pencil	-11582
▁plural	-11583
▁solver	-11584
▁stabil	-11585
▁tackle	-11586
▁toured	-11587
atically	-11588
lication	-11589
ulations	-11590
▁Diamond	-11591
▁Hussein	-11592
▁Iranian	-11593
▁Jamaica	-11594
▁Without	-11595
▁boredom	-11596
▁choices	-11597
▁cleared	-11598
▁compact	-11599
▁courage	-11600
▁derived	-11601
▁dialect	-11602
▁embassy	-11603
▁fitness	-11604
▁hobbies	-11605
▁mankind	-11606
▁monkeys	-11607
▁monthly	-11608
▁neutron	-11609
▁orchest	-11610
▁photons	-11611
▁ranking	-11612
▁secular	-11613
▁singers	-11614
▁singles	-11615
▁streams	-11616
▁trainer	-11617
▁useless	-11618
▁walking	-11619
▁warning	-11620
▁wasting	-11621
▁Florence	-11622
▁Sullivan	-11623
▁aspiring	-11624
▁colonies	-11625
▁coverage	-11626
▁editions	-11627
▁facility	-11628
▁flavours	-11629
▁indicate	-11630
▁infantry	-11631
▁molecule	-11632
▁mortgage	-11633
▁normally	-11634
▁operator	-11635
▁publicly	-11636
▁socially	-11637
▁someones	-11638
▁tangible	-11639
▁toughest	-11640
▁trillion	-11641
▁welcomed	-11642
▁Alzheimer	-11643
▁Meanwhile	-11644
▁Testament	-11645
▁abolished	-11646
▁behaviour	-11647
▁centuries	-11648
▁coalition	-11649
▁coworking	-11650
▁discussed	-11651
▁encounter	-11652
▁exhibited	-11653
▁immigrant	-11654
▁involving	-11655
▁justified	-11656
▁libraries	-11657
▁locations	-11658
▁molecules	-11659
▁narrative	-11660
▁partition	-11661
▁principal	-11662
▁programme	-11663
▁recession	-11664
▁relocated	-11665
▁scheduled	-11666
▁searching	-11667
▁spacetime	-11668
▁supporter	-11669
▁suspected	-11670
▁telephone	-11671
▁travelled	-11672
▁Depression	-11673
▁acceptable	-11674
▁competitor	-11675
▁coordinate	-11676
▁disappoint	-11677
▁discipline	-11678
▁journalism	-11679
▁restricted	-11680
▁translator	-11681
▁Legislative	-11682
▁Mathematics	-11683
▁attractions	-11684
▁cooperation	-11685
▁description	-11686
▁discontinue	-11687
▁integration	-11688
▁maintenance	-11689
▁researchers	-11690
▁specialized	-11691
▁Vishwanathan	-11692
▁civilization	-11693
▁developments	-11694
▁restrictions	-11695
▁corresponding	-11696
▁environmental	-11697
▁theoretically	-11698
▁Administration	-11699
▁classification	-11700
▁representation	-11701
-6	-11702
17	-11703
34	-11704
5?	-11705
Am	-11706
ER	-11707
Ex	-11708
ID	-11709
LL	-11710
OE	-11711
zh	-11712
{1	-11713
ür	-11714
Gen	-11715
Mus	-11716
abs	-11717
aho	-11718
aru	-11719
dad	-11720
dem	-11721
erg	-11722
iba	-11723
iri	-11724
jun	-11725
lie	-11726
lit	-11727
pat	-11728
ryl	-11729
sts	-11730
wig	-11731
yon	-11732
you	-11733
▁3,	-11734
▁62	-11735
▁da	-11736
adox	-11737
ahua	-11738
akam	-11739
anni	-11740
anse	-11741
atem	-11742
aved	-11743
bast	-11744
bles	-11745
card	-11746
ench	-11747
eton	-11748
frac	-11749
greg	-11750
hill	-11751
igue	-11752
imer	-11753
ipop	-11754
itia	-11755
just	-11756
ldon	-11757
mund	-11758
ovan	-11759
phis	-11760
rama	-11761
sqrt	-11762
tail	-11763
unda	-11764
▁161	-11765
▁ATM	-11766
▁Agn	-11767
▁Bog	-11768
▁Boo	-11769
▁Cox	-11770
▁Eag	-11771
▁Equ	-11772
▁Gun	-11773
▁Jar	-11774
▁Kas	-11775
▁Kil	-11776
▁Lar	-11777
▁Lau	-11778
▁Ltd	-11779
▁NYC	-11780
▁Pom	-11781
▁Pra	-11782
▁Qur	-11783
▁Sic	-11784
▁Vij	-11785
▁Zag	-11786
▁cyc	-11787
▁poo	-11788
▁sac	-11789
▁sax	-11790
▁toy	-11791
▁vib	-11792
asses	-11793
ector	-11794
elled	-11795
emble	-11796
entle	-11797
ifies	-11798
inely	-11799
iners	-11800
iscal	-11801
ishes	-11802
itual	-11803
lando	-11804
sters	-11805
ullah	-11806
▁1866	-11807
▁1890	-11808
▁1892	-11809
▁1895	-11810
▁1913	-11811
▁1918	-11812
▁1972	-11813
▁Anti	-11814
▁Azte	-11815
▁Bark	-11816
▁Bash	-11817
▁Björ	-11818
▁Bour	-11819
▁Bros	-11820
▁Cort	-11821
▁Gamb	-11822
▁Glou	-11823
▁Holt	-11824
▁Josh	-11825
▁Kyle	-11826
▁Lars	-11827
▁Lill	-11828
▁Mats	-11829
▁Owen	-11830
▁Poll	-11831
▁Rico	-11832
▁Rose	-11833
▁Sask	-11834
▁Shaw	-11835
▁Stev	-11836
▁Wels	-11837
▁Winn	-11838
▁calm	-11839
▁cant	-11840
▁extr	-11841
▁fest	-11842
▁gone	-11843
▁heav	-11844
▁hoax	-11845
▁icon	-11846
▁impl	-11847
▁itch	-11848
▁lean	-11849
▁liar	-11850
▁none	-11851
▁odds	-11852
▁odor	-11853
▁onto	-11854
▁phos	-11855
▁reun	-11856
▁seed	-11857
▁stem	-11858
▁suck	-11859
▁tact	-11860
▁thus	-11861
alysis	-11862
ancial	-11863
arette	-11864
arrhea	-11865
cliffe	-11866
ellier	-11867
huahua	-11868
linear	-11869
ophren	-11870
rensic	-11871
rently	-11872
rivate	-11873
umbled	-11874
worthy	-11875
▁Allan	-11876
▁Annie	-11877
▁Bever	-11878
▁Bitco	-11879
▁Clara	-11880
▁Corps	-11881
▁Ellis	-11882
▁Franz	-11883
▁Griff	-11884
▁Helen	-11885
▁Lloyd	-11886
▁Maced	-11887
▁Right	-11888
▁Vinci	-11889
▁Wells	-11890
▁Worth	-11891
▁abund	-11892
▁alleg	-11893
▁aller	-11894
▁blast	-11895
▁caffe	-11896
▁cider	-11897
▁conve	-11898
▁craft	-11899
▁dated	-11900
▁deter	-11901
▁drain	-11902
▁forex	-11903
▁genes	-11904
▁gonna	-11905
▁ionic	-11906
▁juice	-11907
▁loser	-11908
▁macro	-11909
▁orbit	-11910
▁persu	-11911
▁pubic	-11912
▁rocks	-11913
▁socks	-11914
▁stare	-11915
▁steal	-11916
▁tenth	-11917
▁tight	-11918
▁turns	-11919
▁yards	-11920
atories	-11921
diocese	-11922
ershire	-11923
hematic	-11924
inental	-11925
isition	-11926
mingham	-11927
ollipop	-11928
oration	-11929
organic	-11930
quarter	-11931
terbury	-11932
working	-11933
▁50000?	-11934
▁Albany	-11935
▁Bharat	-11936
▁Boeing	-11937
▁Fergus	-11938
▁Fisher	-11939
▁Morris	-11940
▁Morton	-11941
▁Norman	-11942
▁Panama	-11943
▁Persia	-11944
▁Pierre	-11945
▁Rhodes	-11946
▁Server	-11947
▁Sharon	-11948
▁Treaty	-11949
▁Zagreb	-11950
▁acknow	-11951
▁attach	-11952
▁backup	-11953
▁cockro	-11954
▁cosmic	-11955
▁facing	-11956
▁firing	-11957
▁fiscal	-11958
▁flower	-11959
▁invade	-11960
▁joints	-11961
▁judges	-11962
▁manual	-11963
▁metall	-11964
▁module	-11965
▁nights	-11966
▁planes	-11967
▁polish	-11968
▁prefix	-11969
▁pulled	-11970
▁relief	-11971
▁retain	-11972
▁rivers	-11973
▁sensor	-11974
▁tribal	-11975
interest	-11976
▁Algeria	-11977
▁Because	-11978
▁Concord	-11979
▁Episode	-11980
▁Estonia	-11981
▁Explain	-11982
▁Hungary	-11983
▁Lebanon	-11984
▁Memphis	-11985
▁Norwich	-11986
▁Orlando	-11987
▁Trinity	-11988
▁Vermont	-11989
▁Winston	-11990
▁Wyoming	-11991
▁bombing	-11992
▁cameras	-11993
▁charism	-11994
▁closing	-11995
▁combine	-11996
▁descend	-11997
▁deserve	-11998
▁fluency	-11999
▁forgive	-12000
▁highway	-12001
▁inspect	-12002
▁jumping	-12003
▁keyword	-12004
▁matters	-12005
▁motorcy	-12006
▁podcast	-12007
▁praised	-12008
▁prelims	-12009
▁rainbow	-12010
▁rebuilt	-12011
▁relieve	-12012
▁secured	-12013
▁temples	-12014
itionally	-12015
lementary	-12016
ographies	-12017
umberland	-12018
▁Baseball	-12019
▁Brighton	-12020
▁Bulgaria	-12021
▁Champion	-12022
▁Chandler	-12023
▁Military	-12024
▁Napoleon	-12025
▁Nintendo	-12026
▁Shanghai	-12027
▁Squadron	-12028
▁arrogant	-12029
▁balanced	-12030
▁bookmark	-12031
▁congress	-12032
▁diarrhea	-12033
▁epidemic	-12034
▁evaluate	-12035
▁medieval	-12036
▁merchant	-12037
▁modified	-12038
▁occurred	-12039
▁patience	-12040
▁payments	-12041
▁peaceful	-12042
▁reducing	-12043
▁sessions	-12044
▁unwanted	-12045
▁verified	-12046
▁Ahmedabad	-12047
▁Argentine	-12048
▁DesignJet	-12049
▁Financial	-12050
▁Katherine	-12051
▁Mangalore	-12052
▁Messenger	-12053
▁Nashville	-12054
▁Transport	-12055
▁Venezuela	-12056
▁bangalore	-12057
▁cellphone	-12058
▁cigarette	-12059
▁collected	-12060
▁criticism	-12061
▁dominated	-12062
▁exclusive	-12063
▁generator	-12064
▁headaches	-12065
▁imaginary	-12066
▁lightning	-12067
▁menstrual	-12068
▁organisms	-12069
▁relatives	-12070
▁repercuss	-12071
▁sentenced	-12072
▁socialism	-12073
▁temporary	-12074
▁tutorials	-12075
▁twitching	-12076
▁universal	-12077
▁universes	-12078
▁Canterbury	-12079
▁Chandrakar	-12080
▁Industrial	-12081
▁exercising	-12082
▁impression	-12083
▁impressive	-12084
▁incredible	-12085
▁influences	-12086
▁integrated	-12087
▁mysterious	-12088
▁physicists	-12089
▁reputation	-12090
▁separation	-12091
▁treatments	-12092
▁acquisition	-12093
▁agriculture	-12094
▁appointment	-12095
▁citizenship	-12096
▁controlling	-12097
▁internships	-12098
▁schizophren	-12099
▁temporarily	-12100
▁territories	-12101
▁uninhabited	-12102
▁Municipality	-12103
▁announcement	-12104
▁fluctuations	-12105
▁historically	-12106
▁incorporated	-12107
▁mitochondria	-12108
▁neighbouring	-12109
▁photographic	-12110
▁scholarships	-12111
▁southwestern	-12112
▁conversations	-12113
▁documentaries	-12114
▁participation	-12115
▁qualification	-12116
▁pharmaceutical	-12117
▁transportation	-12118
▁recommendations	-12119
35	-12120
DB	-12121
PC	-12122
RL	-12123
Tr	-12124
oT	-12125
py	-12126
xi	-12127
ín	-12128
200	-12129
EFA	-12130
anu	-12131
awi	-12132
div	-12133
due	-12134
edo	-12135
jud	-12136
law	-12137
nel	-12138
nez	-12139
ogg	-12140
rot	-12141
ulk	-12142
vir	-12143
▁53	-12144
▁72	-12145
▁95	-12146
▁EP	-12147
▁FA	-12148
▁LS	-12149
▁OK	-12150
▁Om	-12151
▁SP	-12152
▁SU	-12153
▁la	-12154
andy	-12155
appy	-12156
arta	-12157
asha	-12158
atha	-12159
bach	-12160
cult	-12161
ivia	-12162
lder	-12163
offs	-12164
olan	-12165
orie	-12166
pany	-12167
urbs	-12168
velt	-12169
zing	-12170
▁1.3	-12171
▁1.6	-12172
▁165	-12173
▁Aam	-12174
▁Aer	-12175
▁Ana	-12176
▁Bug	-12177
▁Cad	-12178
▁Due	-12179
▁End	-12180
▁Esc	-12181
▁Fac	-12182
▁Git	-12183
▁Hop	-12184
▁Jal	-12185
▁KMC	-12186
▁Lil	-12187
▁Meh	-12188
▁Ned	-12189
▁Our	-12190
▁Pap	-12191
▁Rap	-12192
▁Rus	-12193
▁Tax	-12194
▁Tig	-12195
▁Tob	-12196
▁VII	-12197
▁Yug	-12198
▁dil	-12199
▁dio	-12200
▁hem	-12201
▁hen	-12202
▁hip	-12203
▁lig	-12204
▁toe	-12205
ampoo	-12206
andal	-12207
ashes	-12208
hewan	-12209
irect	-12210
itian	-12211
maker	-12212
orted	-12213
store	-12214
tarct	-12215
uania	-12216
ugust	-12217
uties	-12218
▁1916	-12219
▁Brid	-12220
▁Carn	-12221
▁Fres	-12222
▁ICSE	-12223
▁Once	-12224
▁Only	-12225
▁Orle	-12226
▁Zimb	-12227
▁chef	-12228
▁crow	-12229
▁cute	-12230
▁exch	-12231
▁exit	-12232
▁gang	-12233
▁gear	-12234
▁hill	-12235
▁hook	-12236
▁pics	-12237
▁pink	-12238
▁slee	-12239
▁tone	-12240
▁tons	-12241
▁torn	-12242
▁toys	-12243
▁ware	-12244
▁worm	-12245
arched	-12246
around	-12247
ceived	-12248
cessor	-12249
icking	-12250
incarn	-12251
omenon	-12252
profit	-12253
rypted	-12254
urable	-12255
▁Admir	-12256
▁Brady	-12257
▁Catal	-12258
▁Dream	-12259
▁Drive	-12260
▁Eddie	-12261
▁Exper	-12262
▁Flash	-12263
▁Given	-12264
▁Husky	-12265
▁Index	-12266
▁Kerry	-12267
▁Kohli	-12268
▁Leeds	-12269
▁Marco	-12270
▁Mills	-12271
▁Olive	-12272
▁Patri	-12273
▁Princ	-12274
▁Small	-12275
▁Staff	-12276
▁Turks	-12277
▁acute	-12278
▁backl	-12279
▁balls	-12280
▁cakes	-12281
▁clerk	-12282
▁concl	-12283
▁crops	-12284
▁demol	-12285
▁deriv	-12286
▁diver	-12287
▁enlar	-12288
▁excel	-12289
▁ferry	-12290
▁flaws	-12291
▁hairs	-12292
▁heter	-12293
▁hurts	-12294
▁inaug	-12295
▁integ	-12296
▁memes	-12297
▁nickn	-12298
▁nouns	-12299
▁oblig	-12300
▁parks	-12301
▁perks	-12302
▁reign	-12303
▁sauce	-12304
▁scent	-12305
▁setup	-12306
▁spray	-12307
▁throw	-12308
▁worry	-12309
elected	-12310
ellular	-12311
▁Before	-12312
▁Branch	-12313
▁Census	-12314
▁Comics	-12315
▁Dangal	-12316
▁Forces	-12317
▁Former	-12318
▁Garcia	-12319
▁Harper	-12320
▁Hebrew	-12321
▁Hunter	-12322
▁Malawi	-12323
▁PayPal	-12324
▁Powers	-12325
▁Purdue	-12326
▁Sandra	-12327
▁Slovak	-12328
▁Vienna	-12329
▁accred	-12330
▁chains	-12331
▁column	-12332
▁curved	-12333
▁dragon	-12334
▁enable	-12335
▁farmer	-12336
▁fridge	-12337
▁harder	-12338
▁herpes	-12339
▁holder	-12340
▁layers	-12341
▁layman	-12342
▁lights	-12343
▁peanut	-12344
▁portal	-12345
▁prohib	-12346
▁proofs	-12347
▁remind	-12348
▁ritual	-12349
▁scalar	-12350
▁stated	-12351
▁thighs	-12352
▁triple	-12353
▁tunnel	-12354
▁turkey	-12355
▁wisdom	-12356
atchewan	-12357
iversary	-12358
▁Antarct	-12359
▁Classic	-12360
▁Croatia	-12361
▁Forrest	-12362
▁Further	-12363
▁Infosys	-12364
▁Kannada	-12365
▁Liberia	-12366
▁Manipal	-12367
▁Persian	-12368
▁Pitbull	-12369
▁Student	-12370
▁Walking	-12371
▁adapted	-12372
▁centres	-12373
▁charity	-12374
▁climbed	-12375
▁cupcake	-12376
▁decades	-12377
▁defence	-12378
▁deficit	-12379
▁dioxide	-12380
▁drummer	-12381
▁impacts	-12382
▁involve	-12383
▁lecture	-12384
▁manners	-12385
▁natives	-12386
▁operate	-12387
▁partial	-12388
▁portion	-12389
▁realise	-12390
▁rooting	-12391
▁studios	-12392
▁tension	-12393
▁theatre	-12394
▁viruses	-12395
Education	-12396
▁Alliance	-12397
▁Building	-12398
▁Commerce	-12399
▁Confeder	-12400
▁Hinduism	-12401
▁Ministry	-12402
▁Pentagon	-12403
▁Princess	-12404
▁Regiment	-12405
▁Regional	-12406
▁Theodore	-12407
▁aeronaut	-12408
▁analysts	-12409
▁bombings	-12410
▁caffeine	-12411
▁cemetery	-12412
▁complain	-12413
▁descript	-12414
▁envelope	-12415
▁feminism	-12416
▁forensic	-12417
▁invested	-12418
▁marrying	-12419
▁obtained	-12420
▁playlist	-12421
▁reincarn	-12422
▁sampling	-12423
▁shoulder	-12424
▁struggle	-12425
▁synchron	-12426
▁terrible	-12427
▁Analytics	-12428
▁Chemistry	-12429
▁Hampshire	-12430
▁alternate	-12431
▁amendment	-12432
▁attendant	-12433
▁dismissed	-12434
▁displaced	-12435
▁dissolved	-12436
▁encrypted	-12437
▁eradicate	-12438
▁headphone	-12439
▁hierarchy	-12440
▁hurricane	-12441
▁inorganic	-12442
▁irregular	-12443
▁logistics	-12444
▁passenger	-12445
▁prevented	-12446
▁reporters	-12447
▁retailers	-12448
▁unsuccess	-12449
▁volcanoes	-12450
▁wholesale	-12451
▁Birmingham	-12452
▁Difference	-12453
▁Illuminati	-12454
▁adaptation	-12455
▁blackheads	-12456
▁currencies	-12457
▁employment	-12458
▁encouraged	-12459
▁healthcare	-12460
▁healthiest	-12461
▁hyperbolic	-12462
▁introverts	-12463
▁meaningful	-12464
▁membership	-12465
▁phenomenon	-12466
▁practicing	-12467
▁cockroaches	-12468
▁existential	-12469
▁experiments	-12470
▁handwriting	-12471
▁interactive	-12472
▁intercourse	-12473
▁limitations	-12474
▁orientation	-12475
▁penetration	-12476
▁sustainable	-12477
▁Broadcasting	-12478
▁administrator	-12479
▁collaboration	-12480
▁comprehensive	-12481
▁repercussions	-12482
▁constitutional	-12483
39	-12484
67	-12485
85	-12486
86	-12487
AD	-12488
An	-12489
DM	-12490
IX	-12491
KP	-12492
LM	-12493
]\	-12494
tz	-12495
yt	-12496
ás	-12497
ée	-12498
▁]	-12499
MEI	-12500
atl	-12501
auc	-12502
bys	-12503
czy	-12504
def	-12505
enh	-12506
eta	-12507
etz	-12508
gie	-12509
kad	-12510
leg	-12511
lon	-12512
nia	-12513
oka	-12514
oku	-12515
pot	-12516
ppe	-12517
ryn	-12518
thi	-12519
ubl	-12520
uez	-12521
wam	-12522
yde	-12523
zon	-12524
▁41	-12525
▁49	-12526
▁51	-12527
▁69	-12528
▁DE	-12529
▁DO	-12530
▁Ko	-12531
▁ND	-12532
▁RO	-12533
▁RV	-12534
▁pi	-12535
When	-12536
adow	-12537
anor	-12538
aust	-12539
bean	-12540
bels	-12541
brid	-12542
cium	-12543
elon	-12544
emor	-12545
epsi	-12546
gren	-12547
holm	-12548
iami	-12549
icia	-12550
iece	-12551
inyl	-12552
isch	-12553
made	-12554
mare	-12555
obic	-12556
olds	-12557
oner	-12558
oper	-12559
rell	-12560
roly	-12561
rove	-12562
shaw	-12563
sson	-12564
stad	-12565
stra	-12566
tebr	-12567
tene	-12568
ucus	-12569
▁0.2	-12570
▁157	-12571
▁160	-12572
▁16?	-12573
▁18?	-12574
▁2.0	-12575
▁3.0	-12576
▁800	-12577
▁Bij	-12578
▁Bud	-12579
▁Cao	-12580
▁Cit	-12581
▁DIY	-12582
▁Dix	-12583
▁Dyn	-12584
▁Fal	-12585
▁Gol	-12586
▁Hav	-12587
▁Hom	-12588
▁ISS	-12589
▁Jur	-12590
▁Kad	-12591
▁Kay	-12592
▁Kel	-12593
▁LIC	-12594
▁Len	-12595
▁Maz	-12596
▁McL	-12597
▁Mig	-12598
▁Mol	-12599
▁Nam	-12600
▁Non	-12601
▁Obl	-12602
▁Paz	-12603
▁Pel	-12604
▁Pix	-12605
▁Pon	-12606
▁Roc	-12607
▁SQL	-12608
▁SSB	-12609
▁Sau	-12610
▁Saw	-12611
▁Sis	-12612
▁Sud	-12613
▁Syn	-12614
▁Tab	-12615
▁Taj	-12616
▁Tak	-12617
▁Vik	-12618
▁Yan	-12619
▁Yuk	-12620
▁bat	-12621
▁biz	-12622
▁hij	-12623
▁lam	-12624
▁zod	-12625
.2000	-12626
byter	-12627
consc	-12628
ellor	-12629
entin	-12630
ermat	-12631
grade	-12632
ikely	-12633
iston	-12634
ochar	-12635
odium	-12636
olden	-12637
olics	-12638
olism	-12639
omena	-12640
ommod	-12641
onese	-12642
ophon	-12643
oshop	-12644
othet	-12645
othic	-12646
ounce	-12647
ovich	-12648
ovsky	-12649
ppers	-12650
reets	-12651
ridae	-12652
umblr	-12653
ymour	-12654
▁(201	-12655
▁1819	-12656
▁1830	-12657
▁1853	-12658
▁1856	-12659
▁1861	-12660
▁1864	-12661
▁1865	-12662
▁1868	-12663
▁1870	-12664
▁1911	-12665
▁2020	-12666
▁Alph	-12667
▁Bapt	-12668
▁Beat	-12669
▁Berk	-12670
▁Chet	-12671
▁Curt	-12672
▁Decl	-12673
▁Dill	-12674
▁Edge	-12675
▁FIFA	-12676
▁Gang	-12677
▁IMEI	-12678
▁Icel	-12679
▁Lane	-12680
▁Mack	-12681
▁Magn	-12682
▁Morm	-12683
▁Moto	-12684
▁Plan	-12685
▁Rain	-12686
▁Rica	-12687
▁Rukh	-12688
▁Ruth	-12689
▁Shim	-12690
▁Sind	-12691
▁Sons	-12692
▁Soph	-12693
▁Them	-12694
▁Thus	-12695
▁Tusc	-12696
▁Vers	-12697
▁Vick	-12698
▁Ward	-12699
▁Watt	-12700
▁anth	-12701
▁appa	-12702
▁bone	-12703
▁clim	-12704
▁deaf	-12705
▁diam	-12706
▁gamb	-12707
▁glue	-12708
▁gray	-12709
▁inch	-12710
▁item	-12711
▁lady	-12712
▁nude	-12713
▁owns	-12714
▁radi	-12715
▁roof	-12716
▁tape	-12717
▁unex	-12718
▁verb	-12719
▁wise	-12720
acking	-12721
amphet	-12722
ampton	-12723
ateral	-12724
ection	-12725
erness	-12726
forced	-12727
giving	-12728
keeper	-12729
lights	-12730
listed	-12731
minton	-12732
person	-12733
quited	-12734
verted	-12735
▁1,000	-12736
▁Armed	-12737
▁Books	-12738
▁Burma	-12739
▁Byron	-12740
▁Clash	-12741
▁Claud	-12742
▁Cohen	-12743
▁Colin	-12744
▁Danny	-12745
▁Forex	-12746
▁Gabri	-12747
▁Grass	-12748
▁Hardy	-12749
▁Higgs	-12750
▁Ibiza	-12751
▁Idaho	-12752
▁Jesse	-12753
▁Metro	-12754
▁Miami	-12755
▁Minne	-12756
▁Motor	-12757
▁Pepsi	-12758
▁Perry	-12759
▁Royce	-12760
▁Rural	-12761
▁Serge	-12762
▁Siber	-12763
▁Skype	-12764
▁Solom	-12765
▁Trace	-12766
▁Tunis	-12767
▁Until	-12768
▁Virat	-12769
▁Wheat	-12770
▁absor	-12771
▁accel	-12772
▁canon	-12773
▁cheer	-12774
▁chose	-12775
▁cured	-12776
▁dirty	-12777
▁drove	-12778
▁flour	-12779
▁forth	-12780
▁gains	-12781
▁holds	-12782
▁hosts	-12783
▁immed	-12784
▁incub	-12785
▁inhab	-12786
▁lakes	-12787
▁maxim	-12788
▁molar	-12789
▁moles	-12790
▁outer	-12791
▁oxide	-12792
▁sizes	-12793
▁spare	-12794
▁surpr	-12795
▁sword	-12796
▁tanks	-12797
▁theat	-12798
▁tires	-12799
▁tooth	-12800
▁tribe	-12801
▁usual	-12802
▁vinyl	-12803
General	-12804
artered	-12805
byshire	-12806
ductive	-12807
lington	-12808
rington	-12809
stanbul	-12810
▁Academ	-12811
▁Allied	-12812
▁Beasts	-12813
▁Braves	-12814
▁Comedy	-12815
▁Eagles	-12816
▁Eminem	-12817
▁Geomet	-12818
▁Guatem	-12819
▁Guinea	-12820
▁Hannah	-12821
▁Kindle	-12822
▁Living	-12823
▁Madrid	-12824
▁Martha	-12825
▁Mercer	-12826
▁Method	-12827
▁Quoran	-12828
▁Rahman	-12829
▁Record	-12830
▁Rights	-12831
▁Strate	-12832
▁Taipei	-12833
▁Venice	-12834
▁anyway	-12835
▁asthma	-12836
▁blamed	-12837
▁breath	-12838
▁bridal	-12839
▁brides	-12840
▁carpet	-12841
▁decent	-12842
▁defect	-12843
▁dental	-12844
▁dorsal	-12845
▁expend	-12846
▁gather	-12847
▁hating	-12848
▁horosc	-12849
▁ingest	-12850
▁liquor	-12851
▁locked	-12852
▁mining	-12853
▁missed	-12854
▁orange	-12855
▁phosph	-12856
▁poorly	-12857
▁priest	-12858
▁rating	-12859
▁rebels	-12860
▁regain	-12861
▁regime	-12862
▁snakes	-12863
▁sneeze	-12864
▁symmet	-12865
▁texted	-12866
▁vulner	-12867
▁weaken	-12868
▁zodiac	-12869
byterian	-12870
omedical	-12871
ountered	-12872
ynthesis	-12873
▁Account	-12874
▁Answers	-12875
▁Baghdad	-12876
▁Baptist	-12877
▁Bedford	-12878
▁Carroll	-12879
▁Finally	-12880
▁Gilbert	-12881
▁Hamburg	-12882
▁Iceland	-12883
▁Montene	-12884
▁Morocco	-12885
▁Natural	-12886
▁Scandin	-12887
▁Serbian	-12888
▁Seymour	-12889
▁Stanley	-12890
▁Writing	-12891
▁amateur	-12892
▁anxious	-12893
▁avoided	-12894
▁beaches	-12895
▁consume	-12896
▁default	-12897
▁demonit	-12898
▁discrim	-12899
▁endemic	-12900
▁fatigue	-12901
▁helping	-12902
▁insects	-12903
▁leather	-12904
▁lobster	-12905
▁locally	-12906
▁mirrors	-12907
▁monopol	-12908
▁organis	-12909
▁orgasms	-12910
▁parking	-12911
▁printer	-12912
▁radical	-12913
▁revival	-12914
▁revived	-12915
▁shaking	-12916
▁sharing	-12917
▁solvent	-12918
▁sponsor	-12919
▁stylish	-12920
▁suburbs	-12921
▁summary	-12922
▁theater	-12923
▁threats	-12924
▁trailer	-12925
▁trusted	-12926
▁vectors	-12927
▁winners	-12928
▁winters	-12929
conscious	-12930
mentation	-12931
▁Berkeley	-12932
▁Cambodia	-12933
▁Cornwall	-12934
▁Ferguson	-12935
▁Imperial	-12936
▁Okanagan	-12937
▁Phillips	-12938
▁Terminal	-12939
▁Varanasi	-12940
▁accuracy	-12941
▁athletes	-12942
▁autistic	-12943
▁defining	-12944
▁diameter	-12945
▁disputes	-12946
▁downtown	-12947
▁elephant	-12948
▁entering	-12949
▁genocide	-12950
▁hairfall	-12951
▁hometown	-12952
▁hundreds	-12953
▁interpre	-12954
▁massacre	-12955
▁minority	-12956
▁momentum	-12957
▁monitors	-12958
▁opponent	-12959
▁retained	-12960
▁shortest	-12961
▁spectrum	-12962
▁squadron	-12963
▁starring	-12964
▁transmit	-12965
▁unlikely	-12966
▁visitors	-12967
▁wildlife	-12968
▁withdrew	-12969
iconductor	-12970
requisites	-12971
▁Architect	-12972
▁Municipal	-12973
▁Photoshop	-12974
▁Yorkshire	-12975
▁addresses	-12976
▁aerospace	-12977
▁algebraic	-12978
▁complaint	-12979
▁contacted	-12980
▁dinosaurs	-12981
▁eliminate	-12982
▁explosion	-12983
▁financing	-12984
▁genuinely	-12985
▁geography	-12986
▁household	-12987
▁medicines	-12988
▁prisoners	-12989
▁proposals	-12990
▁prototype	-12991
▁recognize	-12992
▁recruited	-12993
▁resistant	-12994
▁respected	-12995
▁stability	-12996
▁strengths	-12997
▁teenagers	-12998
▁turbochar	-12999
▁virtually	-13000
▁Derbyshire	-13001
▁Originally	-13002
▁Pittsburgh	-13003
▁Richardson	-13004
▁boyfriends	-13005
▁chromosome	-13006
▁connecting	-13007
▁contractor	-13008
▁difficulty	-13009
▁mathematic	-13010
▁methamphet	-13011
▁microscope	-13012
▁songwriter	-13013
▁suspension	-13014
▁ultimately	-13015
▁unrequited	-13016
▁violations	-13017
▁Constantine	-13018
▁astrologers	-13019
▁charismatic	-13020
▁earthquakes	-13021
▁encountered	-13022
▁operational	-13023
▁opportunity	-13024
▁statistical	-13025
▁substantial	-13026
▁tournaments	-13027
▁uncertainty	-13028
▁Saskatchewan	-13029
▁Technologies	-13030
▁acceleration	-13031
▁conservation	-13032
▁invalidating	-13033
▁jurisdiction	-13034
▁manipulative	-13035
▁productivity	-13036
▁autobiography	-13037
▁illustrations	-13038
▁realistically	-13039
▁interpretation	-13040
▁photosynthesis	-13041
88	-13042
Be	-13043
CB	-13044
EN	-13045
FS	-13046
HO	-13047
ls	-13048
én	-13049
ér	-13050
▁–	-13051
.75	-13052
Can	-13053
Cor	-13054
Hub	-13055
aik	-13056
aro	-13057
bbs	-13058
bnb	-13059
cue	-13060
ete	-13061
fol	-13062
hao	-13063
imp	-13064
mus	-13065
nex	-13066
ogh	-13067
pal	-13068
tra	-13069
uja	-13070
uke	-13071
yne	-13072
▁85	-13073
▁91	-13074
▁AB	-13075
▁CR	-13076
▁Cu	-13077
▁EA	-13078
▁IM	-13079
▁Ig	-13080
▁JI	-13081
▁Ju	-13082
▁LG	-13083
▁LP	-13084
▁Mi	-13085
▁OR	-13086
▁Ul	-13087
▁na	-13088
abis	-13089
abwe	-13090
aley	-13091
alli	-13092
alsa	-13093
amas	-13094
aran	-13095
ayer	-13096
brev	-13097
duce	-13098
flow	-13099
gred	-13100
hang	-13101
hman	-13102
iago	-13103
iden	-13104
ilai	-13105
indi	-13106
isse	-13107
leen	-13108
look	-13109
nost	-13110
rien	-13111
rium	-13112
ults	-13113
uous	-13114
wear	-13115
▁175	-13116
▁3.2	-13117
▁32-	-13118
▁AAP	-13119
▁Ace	-13120
▁Aqu	-13121
▁BDS	-13122
▁CNN	-13123
▁CPU	-13124
▁Cos	-13125
▁Cut	-13126
▁Edu	-13127
▁Ent	-13128
▁Fle	-13129
▁HIV	-13130
▁Hat	-13131
▁Jak	-13132
▁Key	-13133
▁Kos	-13134
▁Lap	-13135
▁Lem	-13136
▁Mik	-13137
▁Moz	-13138
▁Mys	-13139
▁PCM	-13140
▁PTE	-13141
▁Rud	-13142
▁Sad	-13143
▁Tir	-13144
▁Ton	-13145
▁Ved	-13146
▁Wes	-13147
▁dye	-13148
▁gel	-13149
▁kgs	-13150
▁mal	-13151
▁mba	-13152
▁nav	-13153
▁obv	-13154
▁que	-13155
▁rum	-13156
...?"	-13157
Point	-13158
acles	-13159
arati	-13160
asaki	-13161
bsite	-13162
ceans	-13163
ceded	-13164
chers	-13165
cific	-13166
cular	-13167
ellar	-13168
elong	-13169
ensen	-13170
esign	-13171
folio	-13172
ifest	-13173
ilder	-13174
ilian	-13175
ilogy	-13176
istor	-13177
liest	-13178
ocent	-13179
oured	-13180
ucker	-13181
unted	-13182
verbs	-13183
vised	-13184
▁500/	-13185
▁Athe	-13186
▁Berg	-13187
▁Beth	-13188
▁Boss	-13189
▁CLAT	-13190
▁Cart	-13191
▁Chin	-13192
▁Fitz	-13193
▁HANA	-13194
▁IPCC	-13195
▁Inte	-13196
▁Kali	-13197
▁Kate	-13198
▁Kill	-13199
▁Lang	-13200
▁Lisa	-13201
▁Lock	-13202
▁Mach	-13203
▁Mahm	-13204
▁Mult	-13205
▁Nova	-13206
▁Page	-13207
▁Pand	-13208
▁Prab	-13209
▁Sier	-13210
▁Slav	-13211
▁UEFA	-13212
▁Vent	-13213
▁Vera	-13214
▁Vice	-13215
▁Voiv	-13216
▁Volk	-13217
▁aloe	-13218
▁anat	-13219
▁apes	-13220
▁appl	-13221
▁butt	-13222
▁cann	-13223
▁chin	-13224
▁conj	-13225
▁cosm	-13226
▁cruc	-13227
▁drew	-13228
▁euro	-13229
▁fart	-13230
▁flex	-13231
▁fulf	-13232
▁gymn	-13233
▁jets	-13234
▁lust	-13235
▁pair	-13236
▁phob	-13237
▁rats	-13238
▁rays	-13239
▁sang	-13240
▁seas	-13241
▁synt	-13242
▁toll	-13243
▁vary	-13244
▁vera	-13245
▁worn	-13246
agraph	-13247
allets	-13248
commun	-13249
ibbean	-13250
ieving	-13251
itable	-13252
market	-13253
rupted	-13254
uanian	-13255
urches	-13256
ushing	-13257
▁10000	-13258
▁40000	-13259
▁Arena	-13260
▁Betty	-13261
▁Clans	-13262
▁Excel	-13263
▁Frost	-13264
▁Ghosh	-13265
▁Glenn	-13266
▁Grade	-13267
▁Guang	-13268
▁Level	-13269
▁Quran	-13270
▁Roose	-13271
▁Round	-13272
▁Samaj	-13273
▁Spani	-13274
▁Storm	-13275
▁Those	-13276
▁Watch	-13277
▁Woman	-13278
▁accus	-13279
▁ahead	-13280
▁annex	-13281
▁awake	-13282
▁bills	-13283
▁brisk	-13284
▁chore	-13285
▁cruel	-13286
▁diets	-13287
▁downv	-13288
▁dozen	-13289
▁drops	-13290
▁fever	-13291
▁genie	-13292
▁horiz	-13293
▁horny	-13294
▁imped	-13295
▁lease	-13296
▁nails	-13297
▁overp	-13298
▁overt	-13299
▁pants	-13300
▁pound	-13301
▁races	-13302
▁rally	-13303
▁screw	-13304
▁semen	-13305
▁sorry	-13306
▁tails	-13307
▁theft	-13308
▁unpop	-13309
▁upset	-13310
areness	-13311
arkable	-13312
inction	-13313
osystem	-13314
ountain	-13315
▁10,000	-13316
▁60000?	-13317
▁Andrea	-13318
▁Asians	-13319
▁Athlet	-13320
▁Bhagat	-13321
▁Buddha	-13322
▁Canyon	-13323
▁Father	-13324
▁Forbes	-13325
▁Garden	-13326
▁Giants	-13327
▁GitHub	-13328
▁Iraqis	-13329
▁Mukesh	-13330
▁Ottawa	-13331
▁Sahara	-13332
▁Senior	-13333
▁Visual	-13334
▁aboard	-13335
▁adults	-13336
▁americ	-13337
▁aspect	-13338
▁comics	-13339
▁copied	-13340
▁correl	-13341
▁deaths	-13342
▁decade	-13343
▁duties	-13344
▁ensure	-13345
▁evapor	-13346
▁filmed	-13347
▁gentle	-13348
▁humour	-13349
▁hungry	-13350
▁ingred	-13351
▁insist	-13352
▁kidney	-13353
▁labour	-13354
▁manner	-13355
▁organs	-13356
▁owning	-13357
▁pardon	-13358
▁postal	-13359
▁purple	-13360
▁refund	-13361
▁scheme	-13362
▁seized	-13363
▁spider	-13364
▁stamps	-13365
▁tester	-13366
▁thinks	-13367
▁unlike	-13368
▁voiced	-13369
computer	-13370
rovement	-13371
▁Admiral	-13372
▁Andrews	-13373
▁Besides	-13374
▁Bolivia	-13375
▁Centers	-13376
▁Defense	-13377
▁Finnish	-13378
▁Gregory	-13379
▁Hosting	-13380
▁Krishna	-13381
▁Mahatma	-13382
▁Mongols	-13383
▁Orleans	-13384
▁affairs	-13385
▁angular	-13386
▁bananas	-13387
▁closest	-13388
▁compuls	-13389
▁crosses	-13390
▁dangers	-13391
▁gaining	-13392
▁harvest	-13393
▁haunted	-13394
▁justify	-13395
▁leagues	-13396
▁magical	-13397
▁mammals	-13398
▁mixture	-13399
▁outsour	-13400
▁planted	-13401
▁polymer	-13402
▁satisfy	-13403
▁scripts	-13404
▁sectors	-13405
▁shampoo	-13406
▁starter	-13407
▁surgeon	-13408
▁transit	-13409
▁viewing	-13410
▁volumes	-13411
▁willing	-13412
▁wishing	-13413
ederation	-13414
▁Broadway	-13415
▁Brothers	-13416
▁Lollipop	-13417
▁Original	-13418
▁Romanian	-13419
▁Zimbabwe	-13420
▁accommod	-13421
▁activate	-13422
▁advisory	-13423
▁annually	-13424
▁barriers	-13425
▁bathroom	-13426
▁breaking	-13427
▁calendar	-13428
▁carrying	-13429
▁checking	-13430
▁civilian	-13431
▁clearing	-13432
▁colonial	-13433
▁dividend	-13434
▁elevator	-13435
▁emulator	-13436
▁executed	-13437
▁explicit	-13438
▁hashtags	-13439
▁integral	-13440
▁kilogram	-13441
▁notebook	-13442
▁patterns	-13443
▁pharmacy	-13444
▁quantity	-13445
▁regarded	-13446
▁reporter	-13447
▁rotation	-13448
▁singular	-13449
▁standing	-13450
▁starving	-13451
▁thousand	-13452
▁vacation	-13453
▁Amendment	-13454
▁Caribbean	-13455
▁Catholics	-13456
▁Communist	-13457
▁Elections	-13458
▁Holocaust	-13459
▁Lithuania	-13460
▁Operation	-13461
▁Roosevelt	-13462
▁acknowled	-13463
▁affecting	-13464
▁afterlife	-13465
▁allegedly	-13466
▁ancestors	-13467
▁awareness	-13468
▁barometer	-13469
▁believing	-13470
▁colleague	-13471
▁conserved	-13472
▁convicted	-13473
▁downloads	-13474
▁ecommerce	-13475
▁embarrass	-13476
▁estimates	-13477
▁evacuated	-13478
▁fantastic	-13479
▁featuring	-13480
▁generated	-13481
▁immediate	-13482
▁integrity	-13483
▁jailbreak	-13484
▁mandatory	-13485
▁phenomena	-13486
▁portfolio	-13487
▁predicted	-13488
▁primarily	-13489
▁rationale	-13490
▁revealing	-13491
▁submitted	-13492
▁suspended	-13493
rastructure	-13494
▁Elementary	-13495
▁Indonesian	-13496
▁Lithuanian	-13497
▁Mechanical	-13498
▁accredited	-13499
▁activation	-13500
▁colleagues	-13501
▁compatible	-13502
▁containing	-13503
▁conviction	-13504
▁deactivate	-13505
▁definitive	-13506
▁enterprise	-13507
▁missionary	-13508
▁nomination	-13509
▁statements	-13510
▁subjective	-13511
▁supplement	-13512
▁Arbitration	-13513
▁Geometridae	-13514
▁Palestinian	-13515
▁Productions	-13516
▁anniversary	-13517
▁circulating	-13518
▁consultancy	-13519
▁continental	-13520
▁cooperative	-13521
▁enforcement	-13522
▁exceptional	-13523
▁generations	-13524
▁prosecutors	-13525
▁substitutes	-13526
▁territorial	-13527
▁Presbyterian	-13528
▁Thanksgiving	-13529
▁aeronautical	-13530
▁collectively	-13531
▁compensation	-13532
▁considerably	-13533
▁geographical	-13534
▁southeastern	-13535
▁subsequently	-13536
▁translations	-13537
▁unemployment	-13538
▁civilizations	-13539
▁configuration	-13540
▁reincarnation	-13541
▁characteristic	-13542
▁implementation	-13543
▁responsibility	-13544
▁specifications	-13545
▁discontinuation	-13546
+?	-13547
33	-13548
AR	-13549
Ad	-13550
FP	-13551
Qu	-13552
pc	-13553
ár	-13554
.04	-13555
251	-13556
@@@	-13557
Nov	-13558
aft	-13559
ahu	-13560
arg	-13561
bat	-13562
din	-13563
doc	-13564
ebu	-13565
gio	-13566
hav	-13567
his	-13568
ieu	-13569
lal	-13570
lee	-13571
oir	-13572
oux	-13573
owo	-13574
oya	-13575
rex	-13576
rox	-13577
tor	-13578
vor	-13579
▁09	-13580
▁56	-13581
▁6-	-13582
▁96	-13583
▁DR	-13584
▁Eg	-13585
▁Iz	-13586
▁LA	-13587
▁LE	-13588
▁Mü	-13589
▁Ni	-13590
▁Ow	-13591
▁QM	-13592
▁TS	-13593
▁Va	-13594
▁Wu	-13595
▁dy	-13596
▁je	-13597
▁ps	-13598
4919	-13599
OEFL	-13600
acea	-13601
achi	-13602
acts	-13603
agos	-13604
alsh	-13605
alus	-13606
anim	-13607
anne	-13608
anto	-13609
ardi	-13610
arms	-13611
arre	-13612
aten	-13613
bson	-13614
coni	-13615
eals	-13616
educ	-13617
elle	-13618
endi	-13619
ente	-13620
erer	-13621
free	-13622
hams	-13623
hole	-13624
horn	-13625
ibal	-13626
icem	-13627
illo	-13628
itya	-13629
izzy	-13630
odor	-13631
ohan	-13632
oids	-13633
onde	-13634
opot	-13635
orse	-13636
oshi	-13637
phys	-13638
rior	-13639
rith	-13640
roke	-13641
sole	-13642
told	-13643
tons	-13644
ucks	-13645
udes	-13646
ulph	-13647
very	-13648
warz	-13649
will	-13650
ydon	-13651
zard	-13652
▁147	-13653
▁149	-13654
▁2.5	-13655
▁350	-13656
▁4.4	-13657
▁Bav	-13658
▁Ced	-13659
▁Cul	-13660
▁Dog	-13661
▁Dol	-13662
▁EMI	-13663
▁FCC	-13664
▁Get	-13665
▁Gib	-13666
▁Hew	-13667
▁Hub	-13668
▁IMA	-13669
▁Jür	-13670
▁Kir	-13671
▁Kol	-13672
▁Lux	-13673
▁MAT	-13674
▁Nex	-13675
▁Oil	-13676
▁PBA	-13677
▁Pas	-13678
▁Sex	-13679
▁Tol	-13680
▁Tut	-13681
▁UFC	-13682
▁Vid	-13683
▁Vil	-13684
▁Wor	-13685
▁Yas	-13686
▁Zhu	-13687
▁alt	-13688
▁ath	-13689
▁blu	-13690
▁cyl	-13691
▁hal	-13692
▁hic	-13693
▁oct	-13694
▁odd	-13695
▁rab	-13696
▁sab	-13697
▁seo	-13698
▁tan	-13699
▁wal	-13700
Harry	-13701
adryl	-13702
amese	-13703
arton	-13704
atial	-13705
ayana	-13706
borne	-13707
eches	-13708
erald	-13709
erved	-13710
esity	-13711
etric	-13712
exual	-13713
flies	-13714
herry	-13715
icide	-13716
igion	-13717
ikhet	-13718
inski	-13719
itely	-13720
ivals	-13721
izure	-13722
jiang	-13723
oline	-13724
ontal	-13725
ophen	-13726
osity	-13727
robes	-13728
rough	-13729
stall	-13730
stead	-13731
stock	-13732
story	-13733
swick	-13734
ulent	-13735
unnan	-13736
world	-13737
▁1814	-13738
▁1851	-13739
▁1855	-13740
▁1879	-13741
▁1880	-13742
▁1881	-13743
▁1882	-13744
▁1898	-13745
▁1903	-13746
▁1926	-13747
▁Belf	-13748
▁Bian	-13749
▁CGPA	-13750
▁Cand	-13751
▁Cinc	-13752
▁Coca	-13753
▁Drew	-13754
▁Farm	-13755
▁Fish	-13756
▁Five	-13757
▁Flet	-13758
▁Fram	-13759
▁Fran	-13760
▁Gaut	-13761
▁Giov	-13762
▁Hope	-13763
▁IISc	-13764
▁ISPs	-13765
▁Isle	-13766
▁Jill	-13767
▁Lost	-13768
▁Lyon	-13769
▁MacD	-13770
▁Mead	-13771
▁Mend	-13772
▁Morn	-13773
▁Moss	-13774
▁Nair	-13775
▁Omar	-13776
▁Pont	-13777
▁Prop	-13778
▁Redd	-13779
▁Rust	-13780
▁Sche	-13781
▁Sign	-13782
▁Taun	-13783
▁Thak	-13784
▁Tosh	-13785
▁amph	-13786
▁bags	-13787
▁bice	-13788
▁bron	-13789
▁carn	-13790
▁corp	-13791
▁eyel	-13792
▁intr	-13793
▁leak	-13794
▁loop	-13795
▁mate	-13796
▁nipp	-13797
▁reop	-13798
▁sche	-13799
▁shel	-13800
▁symp	-13801
▁trap	-13802
▁vess	-13803
aneous	-13804
ansson	-13805
anteed	-13806
apuram	-13807
artney	-13808
avalry	-13809
ercury	-13810
esburg	-13811
harmon	-13812
igious	-13813
innati	-13814
iology	-13815
kinson	-13816
making	-13817
mother	-13818
ocking	-13819
ogenic	-13820
onnell	-13821
opotam	-13822
otypes	-13823
riever	-13824
ronics	-13825
virgin	-13826
▁$100?	-13827
▁2000?	-13828
▁André	-13829
▁Ariel	-13830
▁Assam	-13831
▁Barcl	-13832
▁Belle	-13833
▁Brahm	-13834
▁Brend	-13835
▁Brent	-13836
▁Cliff	-13837
▁Cours	-13838
▁Creat	-13839
▁Crime	-13840
▁Doyle	-13841
▁Edgar	-13842
▁Henri	-13843
▁Holly	-13844
▁Indir	-13845
▁Inner	-13846
▁Jamie	-13847
▁Laure	-13848
▁Loren	-13849
▁Malik	-13850
▁Mason	-13851
▁Mayer	-13852
▁Milan	-13853
▁Paper	-13854
▁Plant	-13855
▁Poker	-13856
▁Prest	-13857
▁Qaeda	-13858
▁Shane	-13859
▁Smash	-13860
▁Spart	-13861
▁Sport	-13862
▁TOEFL	-13863
▁Trail	-13864
▁Urjit	-13865
▁Valea	-13866
▁Walsh	-13867
▁Welsh	-13868
▁Women	-13869
▁Woods	-13870
▁ambit	-13871
▁atroc	-13872
▁batch	-13873
▁btech	-13874
▁caves	-13875
▁cocon	-13876
▁drunk	-13877
▁eagle	-13878
▁edges	-13879
▁fails	-13880
▁flute	-13881
▁franc	-13882
▁fried	-13883
▁goose	-13884
▁impot	-13885
▁indif	-13886
▁inexp	-13887
▁jelly	-13888
▁lakhs	-13889
▁maybe	-13890
▁pitch	-13891
▁prest	-13892
▁raped	-13893
▁recre	-13894
▁recur	-13895
▁remix	-13896
▁rhyth	-13897
▁rifle	-13898
▁roomm	-13899
▁scalp	-13900
▁schol	-13901
▁shirt	-13902
▁skate	-13903
▁snake	-13904
▁stack	-13905
▁theor	-13906
▁tiger	-13907
▁trips	-13908
▁uncom	-13909
▁unity	-13910
▁unrel	-13911
▁verse	-13912
▁wavel	-13913
▁widow	-13914
Pokemon	-13915
Station	-13916
attered	-13917
ductors	-13918
icemail	-13919
ignment	-13920
ilation	-13921
iveness	-13922
million	-13923
needing	-13924
onation	-13925
oppable	-13926
raining	-13927
reaming	-13928
selling	-13929
ulating	-13930
uralism	-13931
versely	-13932
▁30000?	-13933
▁Awards	-13934
▁Aztecs	-13935
▁Baloch	-13936
▁Barnab	-13937
▁Barron	-13938
▁Beagle	-13939
▁Bryant	-13940
▁Cancer	-13941
▁Chetan	-13942
▁Davies	-13943
▁Dennis	-13944
▁Deputy	-13945
▁Direct	-13946
▁Dundas	-13947
▁Ernest	-13948
▁Franco	-13949
▁Gilles	-13950
▁Hassan	-13951
▁Isabel	-13952
▁Kapoor	-13953
▁Legend	-13954
▁Marcus	-13955
▁Marian	-13956
▁Nature	-13957
▁Nikola	-13958
▁Oblast	-13959
▁Reform	-13960
▁Royals	-13961
▁Sebast	-13962
▁Soccer	-13963
▁Stefan	-13964
▁Steven	-13965
▁Supply	-13966
▁Suther	-13967
▁Telugu	-13968
▁Things	-13969
▁Willie	-13970
▁Yunnan	-13971
▁agenda	-13972
▁ballet	-13973
▁blocks	-13974
▁bomber	-13975
▁boxing	-13976
▁clinic	-13977
▁closet	-13978
▁cotton	-13979
▁couldn	-13980
▁crying	-13981
▁deploy	-13982
▁desper	-13983
▁edited	-13984
▁eighth	-13985
▁exempt	-13986
▁fairly	-13987
▁garden	-13988
▁guidel	-13989
▁hiccup	-13990
▁hybrid	-13991
▁liking	-13992
▁magnet	-13993
▁orchid	-13994
▁overse	-13995
▁patron	-13996
▁prejud	-13997
▁pulses	-13998
▁shaped	-13999
▁sheets	-14000
▁shorts	-14001
▁slaves	-14002
▁sodium	-14003
▁sought	-14004
▁tumors	-14005
▁unsubs	-14006
equality	-14007
ilingual	-14008
ophonist	-14009
produced	-14010
▁Ashland	-14011
▁Baronet	-14012
▁Cardiff	-14013
▁Command	-14014
▁Dumbled	-14015
▁Jainism	-14016
▁Legends	-14017
▁Maurice	-14018
▁Middles	-14019
▁Ottoman	-14020
▁Private	-14021
▁Sheldon	-14022
▁Stadium	-14023
▁Stevens	-14024
▁Tibetan	-14025
▁Vincent	-14026
▁abandon	-14027
▁arrests	-14028
▁asexual	-14029
▁cartoon	-14030
▁charter	-14031
▁circumc	-14032
▁console	-14033
▁cyclist	-14034
▁debuted	-14035
▁donated	-14036
▁dragons	-14037
▁emperor	-14038
▁explode	-14039
▁failing	-14040
▁flagged	-14041
▁forests	-14042
▁googled	-14043
▁heating	-14044
▁migrate	-14045
▁modules	-14046
▁mosquit	-14047
▁nipples	-14048
▁outdoor	-14049
▁paradox	-14050
▁payroll	-14051
▁phrases	-14052
▁pleaded	-14053
▁raising	-14054
▁reaches	-14055
▁reactor	-14056
▁romance	-14057
▁samples	-14058
▁seizure	-14059
▁sliding	-14060
▁soldier	-14061
▁spiders	-14062
▁stadium	-14063
▁tattoos	-14064
▁telling	-14065
▁texting	-14066
▁vaccine	-14067
▁welcome	-14068
orporated	-14069
roscience	-14070
▁Benadryl	-14071
▁Crawford	-14072
▁Currency	-14073
▁Fletcher	-14074
▁Giovanni	-14075
▁Istanbul	-14076
▁Jamaican	-14077
▁Marshall	-14078
▁Orthodox	-14079
▁Ranikhet	-14080
▁Treasury	-14081
▁airports	-14082
▁attached	-14083
▁belonged	-14084
▁blackout	-14085
▁boundary	-14086
▁combines	-14087
▁commemor	-14088
▁conveyor	-14089
▁decorate	-14090
▁defender	-14091
▁democrat	-14092
▁detailed	-14093
▁disagree	-14094
▁discrete	-14095
▁entirely	-14096
▁extrater	-14097
▁feminist	-14098
▁findings	-14099
▁founding	-14100
▁gradient	-14101
▁humorous	-14102
▁meditate	-14103
▁midnight	-14104
▁ministry	-14105
▁monaster	-14106
▁monument	-14107
▁neurolog	-14108
▁outgoing	-14109
▁painters	-14110
▁predomin	-14111
▁probable	-14112
▁purifier	-14113
▁rainfall	-14114
▁refugees	-14115
▁sections	-14116
▁shutters	-14117
▁speeches	-14118
▁switched	-14119
▁Bloomberg	-14120
▁Bluetooth	-14121
▁Champions	-14122
▁Christine	-14123
▁Churchill	-14124
▁Fantastic	-14125
▁Guatemala	-14126
▁Liverpool	-14127
▁Malaysian	-14128
▁Relations	-14129
▁Stockholm	-14130
▁Territory	-14131
▁adventure	-14132
▁ambitious	-14133
▁associate	-14134
▁attacking	-14135
▁cancelled	-14136
▁capacitor	-14137
▁chartered	-14138
▁comprises	-14139
▁converter	-14140
▁divisible	-14141
▁divisions	-14142
▁ecosystem	-14143
▁emigrated	-14144
▁expecting	-14145
▁historian	-14146
▁obsession	-14147
▁pseudonym	-14148
▁substance	-14149
▁superhero	-14150
▁voicemail	-14151
cestershire	-14152
▁Adventures	-14153
▁Cincinnati	-14154
▁Dumbledore	-14155
▁Federation	-14156
▁Montenegro	-14157
▁Mornington	-14158
▁Resolution	-14159
▁Sutherland	-14160
▁accurately	-14161
▁admissions	-14162
▁analytical	-14163
▁attempting	-14164
▁complexity	-14165
▁determines	-14166
▁guaranteed	-14167
▁guidelines	-14168
▁horizontal	-14169
▁imprisoned	-14170
▁invitation	-14171
▁modulation	-14172
▁nationwide	-14173
▁preventing	-14174
▁recognised	-14175
▁remarkable	-14176
▁skateboard	-14177
▁suspicious	-14178
▁threatened	-14179
▁wavelength	-14180
▁Balochistan	-14181
▁Indiranagar	-14182
▁Partnership	-14183
▁PlayStation	-14184
▁achievement	-14185
▁allegations	-14186
▁butterflies	-14187
▁circulatory	-14188
▁expenditure	-14189
▁expressions	-14190
▁financially	-14191
▁inexpensive	-14192
▁investigate	-14193
▁possessions	-14194
▁predictions	-14195
▁prostitutes	-14196
▁publication	-14197
▁saxophonist	-14198
▁settlements	-14199
▁transitions	-14200
▁trustworthy	-14201
▁underground	-14202
▁unstoppable	-14203
▁unsubscribe	-14204
▁Independence	-14205
▁publications	-14206
▁respectively	-14207
▁verification	-14208
▁advertisement	-14209
▁assassination	-14210
▁masturbations	-14211
▁organisations	-14212
▁revolutionary	-14213
▁schizophrenia	-14214
▁municipalities	-14215
,8	-14216
2}	-14217
97	-14218
CO	-14219
MP	-14220
NR	-14221
OR	-14222
Rs	-14223
Sp	-14224
fo	-14225
pi	-14226
▁\	-14227
""?	-14228
-12	-14229
-15	-14230
Are	-14231
INR	-14232
NCR	-14233
aba	-14234
afe	-14235
cho	-14236
cut	-14237
fly	-14238
hil	-14239
hin	-14240
iob	-14241
irm	-14242
job	-14243
las	-14244
lot	-14245
mun	-14246
ums	-14247
uni	-14248
usa	-14249
yme	-14250
šić	-14251
▁76	-14252
▁AR	-14253
▁Et	-14254
▁FO	-14255
▁Ho	-14256
▁IA	-14257
▁JS	-14258
▁MN	-14259
▁NE	-14260
▁Ng	-14261
▁Si	-14262
▁UX	-14263
Time	-14264
airs	-14265
akum	-14266
anad	-14267
ayat	-14268
azor	-14269
bage	-14270
blem	-14271
cise	-14272
dish	-14273
east	-14274
eneg	-14275
even	-14276
foot	-14277
grav	-14278
hand	-14279
helm	-14280
hour	-14281
iley	-14282
iman	-14283
ipel	-14284
kele	-14285
last	-14286
ngel	-14287
obil	-14288
oder	-14289
oked	-14290
oons	-14291
outs	-14292
pean	-14293
ping	-14294
riet	-14295
rill	-14296
ripp	-14297
rish	-14298
ritz	-14299
rock	-14300
rukh	-14301
ulam	-14302
ulum	-14303
walk	-14304
your	-14305
zone	-14306
▁104	-14307
▁110	-14308
▁130	-14309
▁170	-14310
▁18.	-14311
▁22?	-14312
▁700	-14313
▁AMC	-14314
▁CIA	-14315
▁Dew	-14316
▁HBO	-14317
▁Hos	-14318
▁Hyp	-14319
▁IDE	-14320
▁Isn	-14321
▁Jee	-14322
▁Kem	-14323
▁Lay	-14324
▁Luk	-14325
▁Lup	-14326
▁Mao	-14327
▁McA	-14328
▁PDF	-14329
▁PSU	-14330
▁Rut	-14331
▁Sac	-14332
▁Shi	-14333
▁Shr	-14334
▁THC	-14335
▁URL	-14336
▁Viz	-14337
▁ate	-14338
▁bes	-14339
▁cro	-14340
▁dip	-14341
▁fol	-14342
▁gig	-14343
▁gri	-14344
▁iit	-14345
▁ink	-14346
▁rag	-14347
▁rud	-14348
▁sne	-14349
▁usa	-14350
acuum	-14351
ammad	-14352
aning	-14353
aping	-14354
atham	-14355
cover	-14356
domin	-14357
emark	-14358
ensed	-14359
enses	-14360
issue	-14361
izard	-14362
ollar	-14363
oshan	-14364
ouses	-14365
phoon	-14366
rific	-14367
shore	-14368
urved	-14369
watch	-14370
▁Buch	-14371
▁Cash	-14372
▁Chel	-14373
▁Cool	-14374
▁Days	-14375
▁Gita	-14376
▁Hand	-14377
▁Hulk	-14378
▁Jung	-14379
▁Less	-14380
▁Limb	-14381
▁Malt	-14382
▁Mind	-14383
▁NDTV	-14384
▁NYSE	-14385
▁Pack	-14386
▁Poor	-14387
▁Pros	-14388
▁Rama	-14389
▁Reed	-14390
▁Sang	-14391
▁Shel	-14392
▁Shir	-14393
▁Shiv	-14394
▁Talk	-14395
▁Todd	-14396
▁Vell	-14397
▁Yard	-14398
▁Zhao	-14399
▁amid	-14400
▁arth	-14401
▁aunt	-14402
▁auto	-14403
▁clay	-14404
▁cros	-14405
▁dose	-14406
▁dump	-14407
▁eats	-14408
▁glob	-14409
▁hadn	-14410
▁hike	-14411
▁idol	-14412
▁meme	-14413
▁nano	-14414
▁palm	-14415
▁peak	-14416
▁sarc	-14417
▁shed	-14418
▁sole	-14419
▁sunk	-14420
▁sync	-14421
▁unne	-14422
▁uter	-14423
▁visc	-14424
August	-14425
bestos	-14426
enment	-14427
ermaid	-14428
hedral	-14429
ingham	-14430
jacent	-14431
namese	-14432
nostic	-14433
online	-14434
orneys	-14435
rophys	-14436
ulates	-14437
verend	-14438
▁25000	-14439
▁Abbey	-14440
▁Arabs	-14441
▁Asper	-14442
▁Based	-14443
▁Bihar	-14444
▁Blake	-14445
▁Brand	-14446
▁Canal	-14447
▁Clear	-14448
▁Dance	-14449
▁Draft	-14450
▁Ellen	-14451
▁Floyd	-14452
▁Fritz	-14453
▁Hicks	-14454
▁Julia	-14455
▁Miche	-14456
▁Naval	-14457
▁Nolan	-14458
▁Patna	-14459
▁Roths	-14460
▁Rouge	-14461
▁Shark	-14462
▁Trust	-14463
▁Tyler	-14464
▁Youth	-14465
▁acted	-14466
▁arter	-14467
▁bully	-14468
▁bumps	-14469
▁cease	-14470
▁chair	-14471
▁chron	-14472
▁coder	-14473
▁dense	-14474
▁devil	-14475
▁engra	-14476
▁exped	-14477
▁gases	-14478
▁kills	-14479
▁lucky	-14480
▁neuro	-14481
▁overs	-14482
▁prize	-14483
▁proxy	-14484
▁query	-14485
▁renov	-14486
▁seeds	-14487
▁shell	-14488
▁skele	-14489
▁spicy	-14490
▁stood	-14491
▁suits	-14492
▁trash	-14493
▁unint	-14494
▁vegan	-14495
▁wanna	-14496
agonist	-14497
eastern	-14498
enegger	-14499
iblical	-14500
inology	-14501
ipelago	-14502
odeship	-14503
▁Airbnb	-14504
▁Bashir	-14505
▁Basque	-14506
▁Eugene	-14507
▁Ferdin	-14508
▁Hughes	-14509
▁Kazakh	-14510
▁Kenyan	-14511
▁Matrix	-14512
▁Paragu	-14513
▁Patter	-14514
▁Roshan	-14515
▁Search	-14516
▁Sierra	-14517
▁Wesley	-14518
▁Wolver	-14519
▁Yugosl	-14520
▁addict	-14521
▁backed	-14522
▁breeds	-14523
▁cylind	-14524
▁deadly	-14525
▁dramas	-14526
▁exclus	-14527
▁fusion	-14528
▁gotten	-14529
▁hiding	-14530
▁infert	-14531
▁insert	-14532
▁invite	-14533
▁merger	-14534
▁mixers	-14535
▁mosque	-14536
▁orders	-14537
▁partly	-14538
▁patrol	-14539
▁prince	-14540
▁racial	-14541
▁ranked	-14542
▁remedy	-14543
▁richer	-14544
▁rising	-14545
▁sights	-14546
▁silent	-14547
▁sprint	-14548
▁styles	-14549
▁tender	-14550
▁trucks	-14551
▁voters	-14552
▁walked	-14553
▁wallet	-14554
actional	-14555
ancellor	-14556
breaking	-14557
endments	-14558
▁Baroque	-14559
▁Charter	-14560
▁Edwards	-14561
▁Gallery	-14562
▁Heather	-14563
▁Hoffman	-14564
▁Koreans	-14565
▁Leonard	-14566
▁Lucknow	-14567
▁Musical	-14568
▁Reuters	-14569
▁Schools	-14570
▁Schwarz	-14571
▁Solomon	-14572
▁Studies	-14573
▁Through	-14574
▁Thunder	-14575
▁Timothy	-14576
▁Tournam	-14577
▁amounts	-14578
▁bizarre	-14579
▁briefly	-14580
▁capable	-14581
▁chamber	-14582
▁chapter	-14583
▁coldest	-14584
▁consent	-14585
▁creates	-14586
▁crucial	-14587
▁cycling	-14588
▁damages	-14589
▁depress	-14590
▁dispute	-14591
▁disrupt	-14592
▁doubled	-14593
▁empathy	-14594
▁filling	-14595
▁heavily	-14596
▁hiccups	-14597
▁ignored	-14598
▁imposed	-14599
▁interim	-14600
▁inverse	-14601
▁jointly	-14602
▁missile	-14603
▁noticed	-14604
▁orbital	-14605
▁outlook	-14606
▁packers	-14607
▁patriot	-14608
▁pending	-14609
▁pension	-14610
▁privacy	-14611
▁puzzles	-14612
▁rivalry	-14613
▁robbery	-14614
▁sixteen	-14615
▁symbols	-14616
▁synonym	-14617
▁tragedy	-14618
▁wallets	-14619
▁webpage	-14620
▁weights	-14621
urrection	-14622
▁Breaking	-14623
▁Cardinal	-14624
▁Drummond	-14625
▁Hartford	-14626
▁Intellig	-14627
▁Justices	-14628
▁McDonald	-14629
▁Mohammad	-14630
▁Nigerian	-14631
▁Products	-14632
▁Together	-14633
▁YouTuber	-14634
▁adjacent	-14635
▁alliance	-14636
▁aluminum	-14637
▁ancestor	-14638
▁ancestry	-14639
▁attempts	-14640
▁bankrupt	-14641
▁crystall	-14642
▁emphasis	-14643
▁forecast	-14644
▁homework	-14645
▁imminent	-14646
▁immortal	-14647
▁infinity	-14648
▁instruct	-14649
▁isotopes	-14650
▁jealousy	-14651
▁lawsuits	-14652
▁lifelong	-14653
▁listened	-14654
▁mainland	-14655
▁marketer	-14656
▁muscular	-14657
▁organize	-14658
▁portrait	-14659
▁protests	-14660
▁regulate	-14661
▁reopened	-14662
▁resolved	-14663
▁scrapped	-14664
▁seasonal	-14665
▁unnecess	-14666
▁warranty	-14667
▁Cantonese	-14668
▁Commander	-14669
▁Emergency	-14670
▁Mesopotam	-14671
▁Patterson	-14672
▁allergies	-14673
▁allocated	-14674
▁artillery	-14675
▁astrophys	-14676
▁attending	-14677
▁depending	-14678
▁directory	-14679
▁elephants	-14680
▁exchanges	-14681
▁execution	-14682
▁expresses	-14683
▁gradually	-14684
▁highlight	-14685
▁illegally	-14686
▁instantly	-14687
▁kidnapped	-14688
▁launching	-14689
▁lucrative	-14690
▁magnitude	-14691
▁measuring	-14692
▁offensive	-14693
▁paragraph	-14694
▁petroleum	-14695
▁producing	-14696
▁promotion	-14697
▁recycling	-14698
▁reporting	-14699
▁resulting	-14700
▁sequences	-14701
▁signature	-14702
▁somewhere	-14703
▁strangers	-14704
▁superchar	-14705
▁testified	-14706
▁trademark	-14707
▁unpopular	-14708
▁violinist	-14709
▁volunteer	-14710
▁warehouse	-14711
▁watershed	-14712
▁Associated	-14713
▁Chandigarh	-14714
▁Pomeranian	-14715
▁Prefecture	-14716
▁Provincial	-14717
▁Rothschild	-14718
▁Vietnamese	-14719
▁answerable	-14720
▁atrocities	-14721
▁autonomous	-14722
▁biomedical	-14723
▁calculator	-14724
▁categories	-14725
▁complement	-14726
▁controller	-14727
▁converting	-14728
▁demolished	-14729
▁derivative	-14730
▁frustrated	-14731
▁inequality	-14732
▁lieutenant	-14733
▁microphone	-14734
▁occupation	-14735
▁organizing	-14736
▁originated	-14737
▁procedures	-14738
▁publishing	-14739
▁recruiting	-14740
▁separately	-14741
▁Confederate	-14742
▁Environment	-14743
▁Progressive	-14744
▁Voivodeship	-14745
▁ingredients	-14746
▁involvement	-14747
▁measurement	-14748
▁nominations	-14749
▁outstanding	-14750
▁rectangular	-14751
▁respiratory	-14752
▁administered	-14753
▁competitions	-14754
▁contribution	-14755
▁discontinued	-14756
▁improvements	-14757
▁neuroscience	-14758
▁overthinking	-14759
▁prescription	-14760
▁reservations	-14761
▁shareholders	-14762
▁distinguished	-14763
▁Representative	-14764
▁Schwarzenegger	-14765
▁Representatives	-14766
▁accomplishments	-14767
▁procrastinating	-14768
,₹	-14769
/7	-14770
0?	-14771
24	-14772
38	-14773
45	-14774
@_	-14775
FE	-14776
LB	-14777
NP	-14778
PP	-14779
ea	-14780
gb	-14781
js	-14782
oi	-14783
ui	-14784
.""	-14785
.15	-14786
.35	-14787
DIA	-14788
Del	-14789
NET	-14790
Not	-14791
PMT	-14792
_@_	-14793
atu	-14794
cen	-14795
ebe	-14796
eri	-14797
fon	-14798
gom	-14799
gra	-14800
hat	-14801
igm	-14802
ija	-14803
ili	-14804
jas	-14805
kas	-14806
len	-14807
lev	-14808
lop	-14809
lus	-14810
mel	-14811
orp	-14812
ová	-14813
sar	-14814
sha	-14815
uco	-14816
utz	-14817
yte	-14818
zig	-14819
▁(6	-14820
▁.?	-14821
▁0?	-14822
▁63	-14823
▁66	-14824
▁AS	-14825
▁AV	-14826
▁Ae	-14827
▁BH	-14828
▁DU	-14829
▁FM	-14830
▁GS	-14831
▁HC	-14832
▁IV	-14833
▁Jh	-14834
▁ON	-14835
▁Ou	-14836
▁VI	-14837
▁XP	-14838
▁pH	-14839
▁pc	-14840
-200	-14841
acio	-14842
ammu	-14843
amta	-14844
aryl	-14845
asey	-14846
auga	-14847
avad	-14848
beth	-14849
bins	-14850
ccin	-14851
code	-14852
cons	-14853
fare	-14854
fers	-14855
idad	-14856
inks	-14857
isan	-14858
isha	-14859
issa	-14860
itas	-14861
itty	-14862
ivic	-14863
keep	-14864
kill	-14865
lake	-14866
male	-14867
neum	-14868
oppy	-14869
oros	-14870
ovic	-14871
plex	-14872
prof	-14873
quet	-14874
quin	-14875
rawl	-14876
remy	-14877
rosh	-14878
shop	-14879
tree	-14880
uala	-14881
uben	-14882
uler	-14883
undy	-14884
urai	-14885
wamy	-14886
warf	-14887
ylon	-14888
▁114	-14889
▁135	-14890
▁176	-14891
▁360	-14892
▁8.1	-14893
▁ADD	-14894
▁AMD	-14895
▁AOL	-14896
▁Aad	-14897
▁Alc	-14898
▁Ald	-14899
▁Ard	-14900
▁Ary	-14901
▁Aub	-14902
▁Bea	-14903
▁CPI	-14904
▁Cec	-14905
▁Cod	-14906
▁Cum	-14907
▁DeW	-14908
▁Ecu	-14909
▁Exp	-14910
▁Hag	-14911
▁Hod	-14912
▁IFB	-14913
▁ISC	-14914
▁Ilo	-14915
▁IoT	-14916
▁Jol	-14917
▁Kor	-14918
▁Koz	-14919
▁Lal	-14920
▁Lex	-14921
▁Lor	-14922
▁Lum	-14923
▁Lun	-14924
▁McE	-14925
▁McN	-14926
▁NHL	-14927
▁Nah	-14928
▁Obs	-14929
▁Ori	-14930
▁PKP	-14931
▁PPF	-14932
▁Pic	-14933
▁Ply	-14934
▁RAM	-14935
▁RTI	-14936
▁Rey	-14937
▁Rip	-14938
▁Rox	-14939
▁SIP	-14940
▁SMS	-14941
▁Sak	-14942
▁Sax	-14943
▁Tac	-14944
▁Tad	-14945
▁Tuc	-14946
▁USS	-14947
▁Vas	-14948
▁Wan	-14949
▁cad	-14950
▁cel	-14951
▁coe	-14952
▁dup	-14953
▁enz	-14954
▁fog	-14955
▁gat	-14956
▁goa	-14957
▁jio	-14958
▁lax	-14959
▁ner	-14960
▁osc	-14961
▁pig	-14962
▁sib	-14963
▁tag	-14964
▁twe	-14965
▁unh	-14966
▁vom	-14967
Corgi	-14968
Neill	-14969
Trump	-14970
actic	-14971
actor	-14972
aines	-14973
angas	-14974
angel	-14975
ankar	-14976
antha	-14977
antra	-14978
aptic	-14979
arted	-14980
atile	-14981
atoes	-14982
aurus	-14983
becca	-14984
bourg	-14985
ctory	-14986
entry	-14987
enzie	-14988
exist	-14989
exper	-14990
glaze	-14991
ignon	-14992
ingle	-14993
inite	-14994
insky	-14995
ledon	-14996
mated	-14997
oking	-14998
ollen	-14999
ooked	-15000
ottwe	-15001
ovice	-15002
oxide	-15003
peare	-15004
posal	-15005
quiry	-15006
renal	-15007
riggs	-15008
round	-15009
style	-15010
ubbed	-15011
white	-15012
▁$100	-15013
▁100%	-15014
▁1813	-15015
▁1828	-15016
▁1836	-15017
▁1838	-15018
▁1846	-15019
▁1862	-15020
▁1874	-15021
▁1877	-15022
▁1883	-15023
▁1886	-15024
▁1897	-15025
▁1905	-15026
▁1908	-15027
▁1914	-15028
▁1933	-15029
▁1949	-15030
▁1952	-15031
▁Alma	-15032
▁Baja	-15033
▁Bare	-15034
▁Beck	-15035
[...]
